{
  "[PAD]": 0,
  "[UNK]": 1,
  "[CLS]": 2,
  "[SEP]": 3,
  "[MASK]": 4,
  "!": 5,
  "\"": 6,
  "#": 7,
  "$": 8,
  "%": 9,
  "&": 10,
  "'": 11,
  "(": 12,
  ")": 13,
  "*": 14,
  "+": 15,
  ",": 16,
  "-": 17,
  ".": 18,
  "/": 19,
  "0": 20,
  "1": 21,
  "2": 22,
  "3": 23,
  "4": 24,
  "5": 25,
  "6": 26,
  "7": 27,
  "8": 28,
  "9": 29,
  ":": 30,
  ";": 31,
  "<": 32,
  "=": 33,
  ">": 34,
  "?": 35,
  "@": 36,
  "[": 37,
  "\\": 38,
  "]": 39,
  "_": 40,
  "a": 41,
  "b": 42,
  "c": 43,
  "d": 44,
  "e": 45,
  "f": 46,
  "g": 47,
  "h": 48,
  "i": 49,
  "j": 50,
  "k": 51,
  "l": 52,
  "m": 53,
  "n": 54,
  "o": 55,
  "p": 56,
  "q": 57,
  "r": 58,
  "s": 59,
  "t": 60,
  "u": 61,
  "v": 62,
  "w": 63,
  "x": 64,
  "y": 65,
  "z": 66,
  "{": 67,
  "}": 68,
  "~": 69,
  "£": 70,
  "¥": 71,
  "§": 72,
  "¨": 73,
  "©": 74,
  "®": 75,
  "°": 76,
  "·": 77,
  "ß": 78,
  "ʺ": 79,
  "β": 80,
  "‐": 81,
  "‑": 82,
  "—": 83,
  "•": 84,
  "…": 85,
  "€": 86,
  "™": 87,
  "∕": 88,
  "∗": 89,
  "○": 90,
  "●": 91,
  "☐": 92,
  "、": 93,
  "下": 94,
  "中": 95,
  "互": 96,
  "京": 97,
  "人": 98,
  "以": 99,
  "传": 100,
  "信": 101,
  "公": 102,
  "务": 103,
  "动": 104,
  "北": 105,
  "华": 106,
  "南": 107,
  "及": 108,
  "台": 109,
  "司": 110,
  "后": 111,
  "国": 112,
  "在": 113,
  "圳": 114,
  "场": 115,
  "天": 116,
  "女": 117,
  "媒": 118,
  "对": 119,
  "广": 120,
  "录": 121,
  "心": 122,
  "性": 123,
  "恒": 124,
  "息": 125,
  "慕": 126,
  "战": 127,
  "技": 128,
  "挑": 129,
  "播": 130,
  "数": 131,
  "新": 132,
  "方": 133,
  "春": 134,
  "有": 135,
  "服": 136,
  "期": 137,
  "未": 138,
  "术": 139,
  "来": 140,
  "杨": 141,
  "果": 142,
  "正": 143,
  "河": 144,
  "浪": 145,
  "深": 146,
  "澜": 147,
  "猜": 148,
  "生": 149,
  "电": 150,
  "百": 151,
  "的": 152,
  "目": 153,
  "相": 154,
  "科": 155,
  "第": 156,
  "纬": 157,
  "经": 158,
  "络": 159,
  "网": 160,
  "职": 161,
  "联": 162,
  "自": 163,
  "节": 164,
  "芒": 165,
  "行": 166,
  "视": 167,
  "计": 168,
  "论": 169,
  "设": 170,
  "访": 171,
  "谈": 172,
  "赏": 173,
  "越": 174,
  "通": 175,
  "银": 176,
  "际": 177,
  "限": 178,
  "青": 179,
  "（": 180,
  "）": 181,
  "，": 182,
  "##o": 183,
  "##t": 184,
  "##e": 185,
  "##l": 186,
  "##s": 187,
  "##r": 188,
  "##n": 189,
  "##a": 190,
  "##i": 191,
  "##y": 192,
  "##f": 193,
  "##d": 194,
  "##g": 195,
  "##z": 196,
  "##w": 197,
  "##5": 198,
  "##c": 199,
  "##b": 200,
  "##k": 201,
  "##h": 202,
  "##m": 203,
  "##0": 204,
  "##p": 205,
  "##8": 206,
  "##2": 207,
  "##4": 208,
  "##9": 209,
  "##u": 210,
  "##v": 211,
  "##1": 212,
  "##3": 213,
  "##6": 214,
  "##j": 215,
  "##7": 216,
  "##x": 217,
  "##q": 218,
  "##圳": 219,
  "##经": 220,
  "##纬": 221,
  "##通": 222,
  "##信": 223,
  "##技": 224,
  "##术": 225,
  "##有": 226,
  "##限": 227,
  "##公": 228,
  "##司": 229,
  "##®": 230,
  "##恒": 231,
  "##科": 232,
  "##视": 233,
  "##™": 234,
  "##方": 235,
  "##传": 236,
  "##媒": 237,
  "##°": 238,
  "##生": 239,
  "##相": 240,
  "##对": 241,
  "##论": 242,
  "##播": 243,
  "##电": 244,
  "##台": 245,
  "##青": 246,
  "##春": 247,
  "##澜": 248,
  "##访": 249,
  "##谈": 250,
  "##录": 251,
  "##ß": 252,
  "##国": 253,
  "##际": 254,
  "##网": 255,
  "##络": 256,
  "##在": 257,
  "##设": 258,
  "##计": 259,
  "##∕": 260,
  "##数": 261,
  "##深": 262,
  "##越": 263,
  "##慕": 264,
  "##河": 265,
  "##下": 266,
  "##女": 267,
  "##人": 268,
  "##场": 269,
  "##新": 270,
  "##性": 271,
  "##挑": 272,
  "##战": 273,
  "##行": 274,
  "##动": 275,
  "##心": 276,
  "##来": 277,
  "##京": 278,
  "##浪": 279,
  "##互": 280,
  "##联": 281,
  "##息": 282,
  "##服": 283,
  "##务": 284,
  "##第": 285,
  "##期": 286,
  "##及": 287,
  "##以": 288,
  "##后": 289,
  "##的": 290,
  "##节": 291,
  "##果": 292,
  "##ʺ": 293,
  "##er": 294,
  "##nt": 295,
  "th": 296,
  "##nd": 297,
  "##ti": 298,
  "##on": 299,
  "##re": 300,
  "##or": 301,
  "##ent": 302,
  "the": 303,
  "##in": 304,
  "and": 305,
  "##es": 306,
  "##ed": 307,
  "##it": 308,
  "##ment": 309,
  "of": 310,
  "##an": 311,
  "##tion": 312,
  "##al": 313,
  "##is": 314,
  "co": 315,
  "##at": 316,
  "ag": 317,
  "##ement": 318,
  "##ar": 319,
  "in": 320,
  "##ic": 321,
  "agre": 322,
  "##en": 323,
  "##ec": 324,
  "agreement": 325,
  "##el": 326,
  "to": 327,
  "##ation": 328,
  "##ro": 329,
  "##ing": 330,
  "##et": 331,
  "##as": 332,
  "as": 333,
  "ex": 334,
  "com": 335,
  "##ac": 336,
  "this": 337,
  "pro": 338,
  "##ur": 339,
  "##il": 340,
  "##us": 341,
  "##ib": 342,
  "##ere": 343,
  "##id": 344,
  "##ve": 345,
  "is": 346,
  "inc": 347,
  "##ts": 348,
  "re": 349,
  "##ch": 350,
  "##le": 351,
  "##por": 352,
  "comp": 353,
  "su": 354,
  "##th": 355,
  "##ith": 356,
  "##ate": 357,
  "##ce": 358,
  "par": 359,
  "##een": 360,
  "by": 361,
  "20": 362,
  "with": 363,
  "or": 364,
  "##ll": 365,
  "##orpor": 366,
  "##ad": 367,
  "con": 368,
  "wh": 369,
  "int": 370,
  "compan": 371,
  "##hib": 372,
  "exhib": 373,
  "exhibit": 374,
  "10": 375,
  "for": 376,
  "company": 377,
  "##ff": 378,
  "##tr": 379,
  "de": 380,
  "##ig": 381,
  "##ess": 382,
  "##are": 383,
  "corpor": 384,
  "##ecti": 385,
  "##etw": 386,
  "corporation": 387,
  "##ip": 388,
  "##ay": 389,
  "##ut": 390,
  "at": 391,
  "##se": 392,
  "##ated": 393,
  "##ant": 394,
  "##ties": 395,
  "##ab": 396,
  "##ng": 397,
  "betw": 398,
  "between": 399,
  "##ers": 400,
  "##ag": 401,
  "an": 402,
  "##ly": 403,
  "##ol": 404,
  "li": 405,
  "##ial": 406,
  "ser": 407,
  "here": 408,
  "on": 409,
  "sh": 410,
  "##aw": 411,
  "##em": 412,
  "no": 413,
  "##ter": 414,
  "##vic": 415,
  "##icen": 416,
  "cont": 417,
  "##vel": 418,
  "ter": 419,
  "##me": 420,
  "st": 421,
  "##ain": 422,
  "servic": 423,
  "licen": 424,
  "be": 425,
  "eff": 426,
  "ent": 427,
  "##ty": 428,
  "where": 429,
  "##ance": 430,
  "##oc": 431,
  "##ective": 432,
  "##ity": 433,
  "##ting": 434,
  "ac": 435,
  "##op": 436,
  "##uc": 437,
  "##mit": 438,
  "effective": 439,
  "term": 440,
  "##ul": 441,
  "dis": 442,
  "sec": 443,
  "##ion": 444,
  "tr": 445,
  "whereas": 446,
  "##ow": 447,
  "##res": 448,
  "##for": 449,
  "##fer": 450,
  "enter": 451,
  "ad": 452,
  "##tions": 453,
  "date": 454,
  "its": 455,
  "##tic": 456,
  "del": 457,
  "##all": 458,
  "##usin": 459,
  "##vid": 460,
  "busin": 461,
  "business": 462,
  "201": 463,
  "ha": 464,
  "##pp": 465,
  "##est": 466,
  "##st": 467,
  "pr": 468,
  "##int": 469,
  "##ell": 470,
  "services": 471,
  "into": 472,
  "und": 473,
  "##duc": 474,
  "mar": 475,
  "herein": 476,
  "##om": 477,
  "##ual": 478,
  "pl": 479,
  "##act": 480,
  "so": 481,
  "parties": 482,
  "produc": 483,
  "cons": 484,
  "##red": 485,
  "man": 486,
  "##ite": 487,
  "##ect": 488,
  "##ber": 489,
  "##os": 490,
  "##ach": 491,
  "entered": 492,
  "##per": 493,
  "##qu": 494,
  "delaw": 495,
  "license": 496,
  "delaware": 497,
  "distr": 498,
  "##ade": 499,
  "##00": 500,
  "ar": 501,
  "under": 502,
  "pur": 503,
  "##ia": 504,
  "party": 505,
  "##ther": 506,
  "res": 507,
  "##able": 508,
  "##form": 509,
  "##ace": 510,
  "##ir": 511,
  "##velop": 512,
  "refer": 513,
  "##ans": 514,
  "develop": 515,
  "comm": 516,
  "ca": 517,
  "##iz": 518,
  "distrib": 519,
  "shall": 520,
  "sp": 521,
  "##ust": 522,
  "made": 523,
  "##fic": 524,
  "has": 525,
  "##tain": 526,
  "conf": 527,
  "limit": 528,
  "ch": 529,
  "all": 530,
  "19": 531,
  "ne": 532,
  "##ndi": 533,
  "provid": 534,
  "fo": 535,
  "##og": 536,
  "##am": 537,
  "##ential": 538,
  "##and": 539,
  "##lu": 540,
  "##igh": 541,
  "##ities": 542,
  "##inc": 543,
  "##ign": 544,
  "that": 545,
  "##ies": 546,
  "cer": 547,
  "def": 548,
  "##idential": 549,
  "##ver": 550,
  "other": 551,
  "##ations": 552,
  "coll": 553,
  "confidential": 554,
  "limited": 555,
  "##ding": 556,
  "princ": 557,
  "##mend": 558,
  "##ge": 559,
  "##ors": 560,
  "amend": 561,
  "princip": 562,
  "any": 563,
  "##ill": 564,
  "sub": 565,
  "defin": 566,
  "##su": 567,
  "##ary": 568,
  "referred": 569,
  "se": 570,
  "rec": 571,
  "##od": 572,
  "principal": 573,
  "##und": 574,
  "##fter": 575,
  "200": 576,
  "mark": 577,
  "distribut": 578,
  "certain": 579,
  "des": 580,
  "place": 581,
  "ma": 582,
  "##ital": 583,
  "day": 584,
  "been": 585,
  "##lic": 586,
  "##age": 587,
  "artic": 588,
  "##ons": 589,
  "##oint": 590,
  "section": 591,
  "article": 592,
  "dated": 593,
  "reg": 594,
  "terms": 595,
  "righ": 596,
  "inter": 597,
  "##un": 598,
  "##vely": 599,
  "##hn": 600,
  "app": 601,
  "inform": 602,
  "##lc": 603,
  "add": 604,
  "##ue": 605,
  "information": 606,
  "trans": 607,
  "such": 608,
  "##ving": 609,
  "##ted": 610,
  "content": 611,
  "##after": 612,
  "llc": 613,
  "##ich": 614,
  "##lo": 615,
  "products": 616,
  "##ven": 617,
  "not": 618,
  "ass": 619,
  "law": 620,
  "fil": 621,
  "each": 622,
  "development": 623,
  "##ork": 624,
  "offic": 625,
  "suite": 626,
  "br": 627,
  "##hip": 628,
  "am": 629,
  "##cl": 630,
  "##ution": 631,
  "tec": 632,
  "##arm": 633,
  "collecti": 634,
  "##ure": 635,
  "##ware": 636,
  "##ive": 637,
  "hereinafter": 638,
  "collectively": 639,
  "##ise": 640,
  "distributor": 641,
  "secur": 642,
  "licens": 643,
  "##ility": 644,
  "##rou": 645,
  "per": 646,
  "##ft": 647,
  "11": 648,
  "fr": 649,
  "having": 650,
  "techn": 651,
  "which": 652,
  "un": 653,
  "##ou": 654,
  "are": 655,
  "##ire": 656,
  "##vis": 657,
  "us": 658,
  "##ong": 659,
  "may": 660,
  "##olog": 661,
  "ro": 662,
  "##wn": 663,
  "##ized": 664,
  "##rant": 665,
  "##ase": 666,
  "##li": 667,
  "aff": 668,
  "##ress": 669,
  "12": 670,
  "##ili": 671,
  "##ub": 672,
  "ph": 673,
  "supp": 674,
  "##eb": 675,
  "13": 676,
  "##ot": 677,
  "acc": 678,
  "securities": 679,
  "requ": 680,
  "##ates": 681,
  "loc": 682,
  "##ftware": 683,
  "##iss": 684,
  "##ange": 685,
  "exec": 686,
  "affili": 687,
  "own": 688,
  "##ely": 689,
  "##um": 690,
  "##td": 691,
  "have": 692,
  "##ater": 693,
  "##eration": 694,
  "spons": 695,
  "software": 696,
  "inv": 697,
  "pursu": 698,
  "laws": 699,
  "technolog": 700,
  "joint": 701,
  "##anch": 702,
  "ltd": 703,
  "liab": 704,
  "##llow": 705,
  "##eth": 706,
  "manag": 707,
  "follow": 708,
  "sep": 709,
  "##enc": 710,
  "will": 711,
  "pursuant": 712,
  "contr": 713,
  "##ember": 714,
  "bo": 715,
  "##io": 716,
  "ban": 717,
  "inclu": 718,
  "##rom": 719,
  "##im": 720,
  "liability": 721,
  "new": 722,
  "##iv": 723,
  "##port": 724,
  "amendment": 725,
  "##tive": 726,
  "##ory": 727,
  "maint": 728,
  "le": 729,
  "cap": 730,
  "oper": 731,
  "defini": 732,
  "from": 733,
  "##fact": 734,
  "set": 735,
  "eng": 736,
  "##use": 737,
  "##our": 738,
  "franch": 739,
  "14": 740,
  "##ission": 741,
  "##ard": 742,
  "15": 743,
  "##pr": 744,
  "##ufact": 745,
  "manufact": 746,
  "stre": 747,
  "##change": 748,
  "rep": 749,
  "located": 750,
  "##ord": 751,
  "##ee": 752,
  "cust": 753,
  "##ct": 754,
  "rights": 755,
  "##mitted": 756,
  "prom": 757,
  "address": 758,
  "consul": 759,
  "##ish": 760,
  "str": 761,
  "condi": 762,
  "ind": 763,
  "##20": 764,
  "definitions": 765,
  "##ap": 766,
  "exchange": 767,
  "##ule": 768,
  "custom": 769,
  "indi": 770,
  "##uary": 771,
  "##ear": 772,
  "##by": 773,
  "##ore": 774,
  "forth": 775,
  "conditions": 776,
  "##gan": 777,
  "ii": 778,
  "##01": 779,
  "contract": 780,
  "agree": 781,
  "proper": 782,
  "sy": 783,
  "grant": 784,
  "##ject": 785,
  "regis": 786,
  "tre": 787,
  "##uring": 788,
  "##eting": 789,
  "invest": 790,
  "##uth": 791,
  "cal": 792,
  "intern": 793,
  "##ument": 794,
  "street": 795,
  "pre": 796,
  "##ublic": 797,
  "request": 798,
  "##aterial": 799,
  "hereby": 800,
  "rel": 801,
  "##ack": 802,
  "doc": 803,
  "it": 804,
  "material": 805,
  "sell": 806,
  "bank": 807,
  "organ": 808,
  "omitted": 809,
  "##roup": 810,
  "##if": 811,
  "mainten": 812,
  "share": 813,
  "treat": 814,
  "maintenance": 815,
  "there": 816,
  "her": 817,
  "document": 818,
  "me": 819,
  "treatment": 820,
  "property": 821,
  "##anc": 822,
  "##tical": 823,
  "##gic": 824,
  "franchise": 825,
  "end": 826,
  "##stem": 827,
  "including": 828,
  "product": 829,
  "resp": 830,
  "fund": 831,
  "group": 832,
  "consid": 833,
  "system": 834,
  "non": 835,
  "##gr": 836,
  "part": 837,
  "management": 838,
  "##ose": 839,
  "199": 840,
  "bel": 841,
  "purch": 842,
  "act": 843,
  "##ational": 844,
  "recital": 845,
  "ins": 846,
  "individ": 847,
  "por": 848,
  "dr": 849,
  "individual": 850,
  "filed": 851,
  "recitals": 852,
  "##ine": 853,
  "service": 854,
  "##orship": 855,
  "if": 856,
  "##end": 857,
  "##ex": 858,
  "##clus": 859,
  "execution": 860,
  "commission": 861,
  "separ": 862,
  "##ada": 863,
  "organized": 864,
  "provide": 865,
  "strate": 866,
  "16": 867,
  "supply": 868,
  "marketing": 869,
  "sch": 870,
  "mo": 871,
  "alli": 872,
  "consideration": 873,
  "##eral": 874,
  "im": 875,
  "cali": 876,
  "##rit": 877,
  "califor": 878,
  "incorpor": 879,
  "##venue": 880,
  "##nia": 881,
  "california": 882,
  "hol": 883,
  "ob": 884,
  "office": 885,
  "use": 886,
  "##ark": 887,
  "##vision": 888,
  "strategic": 889,
  "exp": 890,
  "defined": 891,
  "contents": 892,
  "termin": 893,
  "##ner": 894,
  "form": 895,
  "go": 896,
  "##ame": 897,
  "alliance": 898,
  "table": 899,
  "intell": 900,
  "##ence": 901,
  "affiliate": 902,
  "17": 903,
  "##ether": 904,
  "exc": 905,
  "below": 906,
  "val": 907,
  "exclus": 908,
  "capital": 909,
  "ho": 910,
  "##ately": 911,
  "amended": 912,
  "##co": 913,
  "public": 914,
  "sponsorship": 915,
  "##ock": 916,
  "18": 917,
  "##ectual": 918,
  "intellectual": 919,
  "##tered": 920,
  "##ires": 921,
  "##land": 922,
  "engag": 923,
  "mas": 924,
  "##lor": 925,
  "##resent": 926,
  "##eric": 927,
  "bu": 928,
  "ti": 929,
  "sched": 930,
  "21": 931,
  "##ina": 932,
  "cl": 933,
  "##ition": 934,
  "pay": 935,
  "##gh": 936,
  "investment": 937,
  "subject": 938,
  "up": 939,
  "##now": 940,
  "mut": 941,
  "consult": 942,
  "##ak": 943,
  "jan": 944,
  "sol": 945,
  "licensee": 946,
  "2019": 947,
  "em": 948,
  "road": 949,
  "mutual": 950,
  "incorporated": 951,
  "assign": 952,
  "offices": 953,
  "web": 954,
  "desires": 955,
  "applic": 956,
  "##eto": 957,
  "dec": 958,
  "att": 959,
  "avenue": 960,
  "pharm": 961,
  "registered": 962,
  "##ersion": 963,
  "##uts": 964,
  "promo": 965,
  "brand": 966,
  "exclusive": 967,
  "technologies": 968,
  "##eti": 969,
  "americ": 970,
  "agent": 971,
  "cor": 972,
  "##ied": 973,
  "##ast": 974,
  "competi": 975,
  "separately": 976,
  "one": 977,
  "tel": 978,
  "gen": 979,
  "holding": 980,
  "trust": 981,
  "##ebr": 982,
  "2020": 983,
  "contain": 984,
  "right": 985,
  "ab": 986,
  "represent": 987,
  "##une": 988,
  "portions": 989,
  "##erc": 990,
  "##ets": 991,
  "wo": 992,
  "individually": 993,
  "30": 994,
  "purchase": 995,
  "al": 996,
  "el": 997,
  "follows": 998,
  "med": 999,
  "unit": 1000,
  "##cep": 1001,
  "customer": 1002,
  "##ical": 1003,
  "sal": 1004,
  "january": 1005,
  "manufacturing": 1006,
  "##tis": 1007,
  "##ene": 1008,
  "consultant": 1009,
  "page": 1010,
  "time": 1011,
  "##cr": 1012,
  "tog": 1013,
  "2018": 1014,
  "together": 1015,
  "march": 1016,
  "following": 1017,
  "technology": 1018,
  "now": 1019,
  "##urance": 1020,
  "24": 1021,
  "accord": 1022,
  "accordance": 1023,
  "##ph": 1024,
  "##gram": 1025,
  "licensor": 1026,
  "schedule": 1027,
  "##osed": 1028,
  "december": 1029,
  "version": 1030,
  "trad": 1031,
  "discl": 1032,
  "hos": 1033,
  "##etwork": 1034,
  "network": 1035,
  "he": 1036,
  "##ific": 1037,
  "sc": 1038,
  "outs": 1039,
  "master": 1040,
  "contained": 1041,
  "##lig": 1042,
  "##ourc": 1043,
  "##ified": 1044,
  "01": 1045,
  "##aceu": 1046,
  "endors": 1047,
  "advis": 1048,
  "vent": 1049,
  "tex": 1050,
  "##ax": 1051,
  "##ide": 1052,
  "##ants": 1053,
  "##ners": 1054,
  "##uld": 1055,
  "requested": 1056,
  "car": 1057,
  "##fore": 1058,
  "program": 1059,
  "provided": 1060,
  "hosting": 1061,
  "##aceutical": 1062,
  "state": 1063,
  "##06": 1064,
  "##ida": 1065,
  "##ness": 1066,
  "among": 1067,
  "##ens": 1068,
  "##fe": 1069,
  "coven": 1070,
  "dire": 1071,
  "##abor": 1072,
  "##erson": 1073,
  "##ating": 1074,
  "filing": 1075,
  "##ount": 1076,
  "oblig": 1077,
  "york": 1078,
  "##ier": 1079,
  "south": 1080,
  "bi": 1081,
  "subs": 1082,
  "name": 1083,
  "pharmaceutical": 1084,
  "fin": 1085,
  "resell": 1086,
  "##ang": 1087,
  "id": 1088,
  "##21": 1089,
  "would": 1090,
  "insurance": 1091,
  "termination": 1092,
  "endorsement": 1093,
  "cop": 1094,
  "spec": 1095,
  "##vada": 1096,
  "nevada": 1097,
  "au": 1098,
  "transport": 1099,
  "promotion": 1100,
  "##uly": 1101,
  "throu": 1102,
  "##ises": 1103,
  "apr": 1104,
  "conn": 1105,
  "##34": 1106,
  "##one": 1107,
  "flor": 1108,
  "florida": 1109,
  "regul": 1110,
  "april": 1111,
  "distribution": 1112,
  "##ton": 1113,
  "venture": 1114,
  "design": 1115,
  "through": 1116,
  "##ded": 1117,
  "direct": 1118,
  "flo": 1119,
  "red": 1120,
  "##ection": 1121,
  "prem": 1122,
  "##der": 1123,
  "reseller": 1124,
  "partners": 1125,
  "sign": 1126,
  "shares": 1127,
  "##ization": 1128,
  "##ency": 1129,
  "##cess": 1130,
  "affiliates": 1131,
  "##out": 1132,
  "##ause": 1133,
  "##ks": 1134,
  "##ments": 1135,
  "therefore": 1136,
  "26": 1137,
  "both": 1138,
  "##ercial": 1139,
  "commercial": 1140,
  "bec": 1141,
  "##ond": 1142,
  "june": 1143,
  "stat": 1144,
  "23": 1145,
  "##de": 1146,
  "international": 1147,
  "hereto": 1148,
  "##gy": 1149,
  "respect": 1150,
  "systems": 1151,
  "31": 1152,
  "##vent": 1153,
  "stock": 1154,
  "##led": 1155,
  "site": 1156,
  "war": 1157,
  "attach": 1158,
  "wish": 1159,
  "sponsor": 1160,
  "harm": 1161,
  "##iver": 1162,
  "disclosed": 1163,
  "##mber": 1164,
  "##vember": 1165,
  "november": 1166,
  "related": 1167,
  "nor": 1168,
  "copy": 1169,
  "cent": 1170,
  "transfer": 1171,
  "general": 1172,
  "branding": 1173,
  "##50": 1174,
  "covenants": 1175,
  "##emark": 1176,
  "united": 1177,
  "##of": 1178,
  "provision": 1179,
  "outsourc": 1180,
  "bl": 1181,
  "collabor": 1182,
  "publicly": 1183,
  "##yer": 1184,
  "##go": 1185,
  "27": 1186,
  "##ie": 1187,
  "cause": 1188,
  "fu": 1189,
  "##ail": 1190,
  "##man": 1191,
  "28": 1192,
  "##mb": 1193,
  "##te": 1194,
  "##ij": 1195,
  "engaged": 1196,
  "sour": 1197,
  "sup": 1198,
  "source": 1199,
  "22": 1200,
  "##isting": 1201,
  "##idi": 1202,
  "bas": 1203,
  "trademark": 1204,
  "rule": 1205,
  "texas": 1206,
  "94": 1207,
  "prof": 1208,
  "lik": 1209,
  "drive": 1210,
  "agreements": 1211,
  "exclu": 1212,
  "can": 1213,
  "perform": 1214,
  "corp": 1215,
  "work": 1216,
  "##ative": 1217,
  "outsourcing": 1218,
  "licensed": 1219,
  "##min": 1220,
  "##wo": 1221,
  "##pl": 1222,
  "op": 1223,
  "america": 1224,
  "cli": 1225,
  "unders": 1226,
  "client": 1227,
  "floor": 1228,
  "sa": 1229,
  "##cept": 1230,
  "##oci": 1231,
  "territ": 1232,
  "##ix": 1233,
  "##ings": 1234,
  "offer": 1235,
  "febr": 1236,
  "february": 1237,
  "existing": 1238,
  "##ree": 1239,
  "year": 1240,
  "purp": 1241,
  "transportation": 1242,
  "financ": 1243,
  "marked": 1244,
  "means": 1245,
  "ener": 1246,
  "but": 1247,
  "##way": 1248,
  "pa": 1249,
  "##plo": 1250,
  "##ath": 1251,
  "auth": 1252,
  "resear": 1253,
  "owner": 1254,
  "##ata": 1255,
  "beij": 1256,
  "fur": 1257,
  "##ist": 1258,
  "obligations": 1259,
  "warrant": 1260,
  "ident": 1261,
  "internet": 1262,
  "sept": 1263,
  "##ra": 1264,
  "research": 1265,
  "beijing": 1266,
  "life": 1267,
  "##bil": 1268,
  "##alf": 1269,
  "san": 1270,
  "coop": 1271,
  "##less": 1272,
  "upon": 1273,
  "##ten": 1274,
  "author": 1275,
  "rece": 1276,
  "west": 1277,
  "rem": 1278,
  "##ld": 1279,
  "##ice": 1280,
  "holdings": 1281,
  "fir": 1282,
  "september": 1283,
  "bro": 1284,
  "agrees": 1285,
  "##ator": 1286,
  "oct": 1287,
  "know": 1288,
  "usa": 1289,
  "event": 1290,
  "##av": 1291,
  "territory": 1292,
  "pharmaceuticals": 1293,
  "issu": 1294,
  "china": 1295,
  "beh": 1296,
  "associ": 1297,
  "##ober": 1298,
  "october": 1299,
  "behalf": 1300,
  "financial": 1301,
  "because": 1302,
  "excluded": 1303,
  "##itness": 1304,
  "reference": 1305,
  "2015": 1306,
  "consulting": 1307,
  "##iti": 1308,
  "seller": 1309,
  "agreed": 1310,
  "equ": 1311,
  "##ional": 1312,
  "wor": 1313,
  "thir": 1314,
  "energy": 1315,
  "ther": 1316,
  "##ns": 1317,
  "##70": 1318,
  "person": 1319,
  "2017": 1320,
  "mod": 1321,
  "whose": 1322,
  "do": 1323,
  "char": 1324,
  "appoint": 1325,
  "collaboration": 1326,
  "##ric": 1327,
  "world": 1328,
  "gr": 1329,
  "##igned": 1330,
  "undersigned": 1331,
  "emplo": 1332,
  "##lish": 1333,
  "##rov": 1334,
  "##ees": 1335,
  "##tiv": 1336,
  "##ne": 1337,
  "common": 1338,
  "##vern": 1339,
  "support": 1340,
  "en": 1341,
  "##az": 1342,
  "mean": 1343,
  "##ivers": 1344,
  "you": 1345,
  "contro": 1346,
  "##lier": 1347,
  "first": 1348,
  "99": 1349,
  "ret": 1350,
  "cooperation": 1351,
  "adver": 1352,
  "competitive": 1353,
  "likely": 1354,
  "ver": 1355,
  "during": 1356,
  "sales": 1357,
  "##umber": 1358,
  "witness": 1359,
  "city": 1360,
  "##uro": 1361,
  "govern": 1362,
  "subsidi": 1363,
  "mer": 1364,
  "##ict": 1365,
  "##lob": 1366,
  "provider": 1367,
  "back": 1368,
  "##ario": 1369,
  "000": 1370,
  "##so": 1371,
  "initi": 1372,
  "connection": 1373,
  "buyer": 1374,
  "1999": 1375,
  "##wise": 1376,
  "otherwise": 1377,
  "##alth": 1378,
  "provisions": 1379,
  "value": 1380,
  "wishes": 1381,
  "##eld": 1382,
  "##utions": 1383,
  "execut": 1384,
  "full": 1385,
  "##ustr": 1386,
  "deliver": 1387,
  "##know": 1388,
  "provides": 1389,
  "acknow": 1390,
  "acknowled": 1391,
  "##10": 1392,
  "qu": 1393,
  "peri": 1394,
  "##let": 1395,
  "order": 1396,
  "advertis": 1397,
  "park": 1398,
  "2000": 1399,
  "##les": 1400,
  "##net": 1401,
  "##urre": 1402,
  "july": 1403,
  "addition": 1404,
  "identified": 1405,
  "gu": 1406,
  "vir": 1407,
  "health": 1408,
  "number": 1409,
  "##ici": 1410,
  "pri": 1411,
  "period": 1412,
  "without": 1413,
  "fox": 1414,
  "ship": 1415,
  "##ics": 1416,
  "profess": 1417,
  "29": 1418,
  "agency": 1419,
  "net": 1420,
  "##ents": 1421,
  "2005": 1422,
  "third": 1423,
  "##yl": 1424,
  "commun": 1425,
  "national": 1426,
  "##33": 1427,
  "payment": 1428,
  "supplier": 1429,
  "applicable": 1430,
  "##crib": 1431,
  "##40": 1432,
  "##ms": 1433,
  "their": 1434,
  "dep": 1435,
  "1st": 1436,
  "states": 1437,
  "acqu": 1438,
  "noti": 1439,
  "initial": 1440,
  "used": 1441,
  "premier": 1442,
  "##acted": 1443,
  "##ritten": 1444,
  "##line": 1445,
  "canada": 1446,
  "fed": 1447,
  "north": 1448,
  "written": 1449,
  "owners": 1450,
  "materials": 1451,
  "##unt": 1452,
  "owns": 1453,
  "elec": 1454,
  "good": 1455,
  "record": 1456,
  "professional": 1457,
  "##ither": 1458,
  "##tim": 1459,
  "1934": 1460,
  "##ann": 1461,
  "pen": 1462,
  "market": 1463,
  "statement": 1464,
  "##ilities": 1465,
  "signat": 1466,
  "witnesseth": 1467,
  "industr": 1468,
  "##ke": 1469,
  "registr": 1470,
  "fac": 1471,
  "log": 1472,
  "employ": 1473,
  "further": 1474,
  "##gust": 1475,
  "august": 1476,
  "##under": 1477,
  "executed": 1478,
  "##tainment": 1479,
  "##bile": 1480,
  "##ille": 1481,
  "buil": 1482,
  "rene": 1483,
  "##gro": 1484,
  "renew": 1485,
  "process": 1486,
  "tele": 1487,
  "##iet": 1488,
  "##nth": 1489,
  "min": 1490,
  "##ep": 1491,
  "contractor": 1492,
  "25": 1493,
  "sale": 1494,
  "excite": 1495,
  "glob": 1496,
  "global": 1497,
  "electr": 1498,
  "##ort": 1499,
  "##ville": 1500,
  "##tin": 1501,
  "entertainment": 1502,
  "gas": 1503,
  "##sh": 1504,
  "admin": 1505,
  "grants": 1506,
  "count": 1507,
  "##ute": 1508,
  "solutions": 1509,
  "2006": 1510,
  "ext": 1511,
  "access": 1512,
  "est": 1513,
  "##istr": 1514,
  "##van": 1515,
  "developed": 1516,
  "##ground": 1517,
  "##ures": 1518,
  "within": 1519,
  "##ash": 1520,
  "bene": 1521,
  "background": 1522,
  "redacted": 1523,
  "##itage": 1524,
  "heritage": 1525,
  "##ret": 1526,
  "attached": 1527,
  "##ages": 1528,
  "iii": 1529,
  "iv": 1530,
  "##tit": 1531,
  "imp": 1532,
  "data": 1533,
  "purpose": 1534,
  "representations": 1535,
  "##ian": 1536,
  "operating": 1537,
  "##ale": 1538,
  "box": 1539,
  "commercialization": 1540,
  "##nsyl": 1541,
  "pennsyl": 1542,
  "pennsylvan": 1543,
  "gol": 1544,
  "##idge": 1545,
  "##ys": 1546,
  "mobile": 1547,
  "pat": 1548,
  "control": 1549,
  "price": 1550,
  "who": 1551,
  "warranties": 1552,
  "##ules": 1553,
  "member": 1554,
  "lead": 1555,
  "describ": 1556,
  "administr": 1557,
  "pennsylvania": 1558,
  "##80": 1559,
  "pow": 1560,
  "##ick": 1561,
  "##25": 1562,
  "nu": 1563,
  "##gin": 1564,
  "enterpr": 1565,
  "2016": 1566,
  "merch": 1567,
  "additional": 1568,
  "##ok": 1569,
  "##ield": 1570,
  "webs": 1571,
  "notice": 1572,
  "##crip": 1573,
  "communic": 1574,
  "suc": 1575,
  "valu": 1576,
  "prior": 1577,
  "valuable": 1578,
  "activ": 1579,
  "##uct": 1580,
  "item": 1581,
  "den": 1582,
  "##60": 1583,
  "av": 1584,
  "ont": 1585,
  "orig": 1586,
  "acknowledg": 1587,
  "ownership": 1588,
  "out": 1589,
  "project": 1590,
  "##ss": 1591,
  "##urrent": 1592,
  "call": 1593,
  "##mission": 1594,
  "partnership": 1595,
  "100": 1596,
  "02": 1597,
  "##tics": 1598,
  "##ible": 1599,
  "##ason": 1600,
  "account": 1601,
  "manufactur": 1602,
  "assignment": 1603,
  "developing": 1604,
  "complet": 1605,
  "ve": 1606,
  "district": 1607,
  "lo": 1608,
  "purchas": 1609,
  "##ites": 1610,
  "pe": 1611,
  "respons": 1612,
  "fore": 1613,
  "licensing": 1614,
  "how": 1615,
  "than": 1616,
  "brack": 1617,
  "mic": 1618,
  "hy": 1619,
  "di": 1620,
  "indic": 1621,
  "##yn": 1622,
  "aud": 1623,
  "2014": 1624,
  "13d": 1625,
  "shipper": 1626,
  "te": 1627,
  "ed": 1628,
  "##ry": 1629,
  "application": 1630,
  "plan": 1631,
  "##ote": 1632,
  "##ods": 1633,
  "gre": 1634,
  "##61": 1635,
  "##che": 1636,
  "adviser": 1637,
  "fee": 1638,
  "authorized": 1639,
  "35": 1640,
  "##ification": 1641,
  "month": 1642,
  "##xx": 1643,
  "advertising": 1644,
  "##ietary": 1645,
  "approv": 1646,
  "amendments": 1647,
  "##emb": 1648,
  "##egr": 1649,
  "integr": 1650,
  "la": 1651,
  "##ous": 1652,
  "##pe": 1653,
  "##ass": 1654,
  "2004": 1655,
  "rac": 1656,
  "building": 1657,
  "maintain": 1658,
  "described": 1659,
  "except": 1660,
  "##30": 1661,
  "signature": 1662,
  "##itis": 1663,
  "britis": 1664,
  "british": 1665,
  "confidentiality": 1666,
  "leg": 1667,
  "1998": 1668,
  "owned": 1669,
  "##ired": 1670,
  "aut": 1671,
  "##ove": 1672,
  "propr": 1673,
  "unless": 1674,
  "proprietary": 1675,
  "##att": 1676,
  "##atory": 1677,
  "hereof": 1678,
  "fees": 1679,
  "ny": 1680,
  "funds": 1681,
  "cy": 1682,
  "brackets": 1683,
  "receip": 1684,
  "online": 1685,
  "republic": 1686,
  "cour": 1687,
  "capac": 1688,
  "##wood": 1689,
  "##cc": 1690,
  "constr": 1691,
  "commenc": 1692,
  "origin": 1693,
  "exper": 1694,
  "them": 1695,
  "express": 1696,
  "colu": 1697,
  "##11": 1698,
  "king": 1699,
  "operations": 1700,
  "##mbia": 1701,
  "columbia": 1702,
  "series": 1703,
  "franchis": 1704,
  "success": 1705,
  "du": 1706,
  "det": 1707,
  "power": 1708,
  "##art": 1709,
  "tw": 1710,
  "tit": 1711,
  "operation": 1712,
  "##oss": 1713,
  "##ome": 1714,
  "federal": 1715,
  "lu": 1716,
  "ap": 1717,
  "also": 1718,
  "##ient": 1719,
  "##95": 1720,
  "rev": 1721,
  "##ington": 1722,
  "second": 1723,
  "hand": 1724,
  "isra": 1725,
  "israel": 1726,
  "##yal": 1727,
  "royal": 1728,
  "##ablish": 1729,
  "af": 1730,
  "establish": 1731,
  "##wide": 1732,
  "current": 1733,
  "##ake": 1734,
  "##ury": 1735,
  "##ov": 1736,
  "specific": 1737,
  "activities": 1738,
  "manufacturer": 1739,
  "media": 1740,
  "trademarks": 1741,
  "duly": 1742,
  "some": 1743,
  "franchisee": 1744,
  "##ning": 1745,
  "racing": 1746,
  "##ins": 1747,
  "##aph": 1748,
  "pc": 1749,
  "providing": 1750,
  "relations": 1751,
  "rest": 1752,
  "dom": 1753,
  "##ky": 1754,
  "33": 1755,
  "##ally": 1756,
  "##ope": 1757,
  "known": 1758,
  "medical": 1759,
  "##ntr": 1760,
  "##ai": 1761,
  "communications": 1762,
  "##ink": 1763,
  "##tt": 1764,
  "above": 1765,
  "either": 1766,
  "##iting": 1767,
  "hill": 1768,
  "ann": 1769,
  "interest": 1770,
  "##lands": 1771,
  "po": 1772,
  "##ps": 1773,
  "##its": 1774,
  "based": 1775,
  "##ienc": 1776,
  "##ane": 1777,
  "equip": 1778,
  "east": 1779,
  "nc": 1780,
  "card": 1781,
  "subsidiary": 1782,
  "##oses": 1783,
  "capacity": 1784,
  "jer": 1785,
  "##ines": 1786,
  "##sey": 1787,
  "jersey": 1788,
  "director": 1789,
  "ontario": 1790,
  "well": 1791,
  "sometim": 1792,
  "contin": 1793,
  "licenses": 1794,
  "##ful": 1795,
  "##isco": 1796,
  "thereto": 1797,
  "receipt": 1798,
  "##ww": 1799,
  "hereunder": 1800,
  "appointment": 1801,
  "interp": 1802,
  "sometimes": 1803,
  "engagement": 1804,
  "ip": 1805,
  "offering": 1806,
  "micro": 1807,
  "##licen": 1808,
  "bio": 1809,
  "pip": 1810,
  "2010": 1811,
  "american": 1812,
  "cre": 1813,
  "##anta": 1814,
  "sublicen": 1815,
  "desire": 1816,
  "00": 1817,
  "##utory": 1818,
  "sw": 1819,
  "association": 1820,
  "promises": 1821,
  "##ohn": 1822,
  "qual": 1823,
  "##tively": 1824,
  "##aining": 1825,
  "300": 1826,
  "statutory": 1827,
  "##hu": 1828,
  "2012": 1829,
  "processing": 1830,
  "indep": 1831,
  "capitalized": 1832,
  "conc": 1833,
  "purchaser": 1834,
  "suppl": 1835,
  "title": 1836,
  "vertical": 1837,
  "prov": 1838,
  "verticalnet": 1839,
  "engage": 1840,
  "after": 1841,
  "lis": 1842,
  "www": 1843,
  "##lev": 1844,
  "##zh": 1845,
  "operator": 1846,
  "##ify": 1847,
  "##tc": 1848,
  "##ino": 1849,
  "24b": 1850,
  "days": 1851,
  "92": 1852,
  "ste": 1853,
  "sur": 1854,
  "##mo": 1855,
  "logo": 1856,
  "equipment": 1857,
  "compli": 1858,
  "interpret": 1859,
  "ten": 1860,
  "2011": 1861,
  "black": 1862,
  "transac": 1863,
  "##ffici": 1864,
  "performance": 1865,
  "reason": 1866,
  "##teris": 1867,
  "mil": 1868,
  "##ker": 1869,
  "##endent": 1870,
  "ber": 1871,
  "independent": 1872,
  "##bo": 1873,
  "effect": 1874,
  "##ult": 1875,
  "electron": 1876,
  "asteris": 1877,
  "commit": 1878,
  "htt": 1879,
  "manufacture": 1880,
  "scope": 1881,
  "renewal": 1882,
  "listed": 1883,
  "##emn": 1884,
  "##ions": 1885,
  "indemn": 1886,
  "obtain": 1887,
  "comput": 1888,
  "cel": 1889,
  "##ebrity": 1890,
  "celebrity": 1891,
  "##cription": 1892,
  "##tern": 1893,
  "more": 1894,
  "var": 1895,
  "##ger": 1896,
  "##ight": 1897,
  "change": 1898,
  "regulatory": 1899,
  "2008": 1900,
  "##ma": 1901,
  "suffici": 1902,
  "gal": 1903,
  "website": 1904,
  "##sc": 1905,
  "records": 1906,
  "ib": 1907,
  "##emed": 1908,
  "##ado": 1909,
  "benef": 1910,
  "customers": 1911,
  "high": 1912,
  "##22": 1913,
  "acknowledged": 1914,
  "34": 1915,
  "##ley": 1916,
  "expir": 1917,
  "relationship": 1918,
  "assets": 1919,
  "partner": 1920,
  "##arant": 1921,
  "##ds": 1922,
  "premises": 1923,
  "issued": 1924,
  "virgin": 1925,
  "ger": 1926,
  "wire": 1927,
  "guarant": 1928,
  "##ince": 1929,
  "distribute": 1930,
  "##ga": 1931,
  "##04": 1932,
  "off": 1933,
  "broad": 1934,
  "##missions": 1935,
  "##ars": 1936,
  "sina": 1937,
  "companies": 1938,
  "##aries": 1939,
  "##87": 1940,
  "code": 1941,
  "##row": 1942,
  "corio": 1943,
  "free": 1944,
  "plat": 1945,
  "required": 1946,
  "specified": 1947,
  "field": 1948,
  "developer": 1949,
  "contrac": 1950,
  "601": 1951,
  "##trition": 1952,
  "http": 1953,
  "regulation": 1954,
  "team": 1955,
  "two": 1956,
  "2009": 1957,
  "retain": 1958,
  "expiration": 1959,
  "##ising": 1960,
  "remark": 1961,
  "meanings": 1962,
  "hot": 1963,
  "play": 1964,
  "delivery": 1965,
  "##ud": 1966,
  "1996": 1967,
  "fre": 1968,
  "ref": 1969,
  "##erv": 1970,
  "##eng": 1971,
  "addend": 1972,
  "german": 1973,
  "il": 1974,
  "##ience": 1975,
  "##35": 1976,
  "##65": 1977,
  "chann": 1978,
  "channel": 1979,
  "eh": 1980,
  "##67": 1981,
  "prot": 1982,
  "tim": 1983,
  "deemed": 1984,
  "arr": 1985,
  "corporate": 1986,
  "amount": 1987,
  "paid": 1988,
  "##ects": 1989,
  "assist": 1990,
  "##rd": 1991,
  "##gen": 1992,
  "granted": 1993,
  "##br": 1994,
  "##up": 1995,
  "clar": 1996,
  "##med": 1997,
  "##als": 1998,
  "ave": 1999,
  "vis": 2000,
  "basis": 2001,
  "##uction": 2002,
  "oak": 2003,
  "head": 2004,
  "cos": 2005,
  "compliance": 2006,
  "training": 2007,
  "##omed": 2008,
  "manager": 2009,
  "computer": 2010,
  "##ements": 2011,
  "entity": 2012,
  "worldwide": 2013,
  "color": 2014,
  "##tee": 2015,
  "asset": 2016,
  "2007": 2017,
  "committee": 2018,
  "##ced": 2019,
  "repor": 2020,
  "foot": 2021,
  "mul": 2022,
  "##ball": 2023,
  "##raph": 2024,
  "port": 2025,
  "##hol": 2026,
  "advisory": 2027,
  "football": 2028,
  "multi": 2029,
  "platform": 2030,
  "##ah": 2031,
  "being": 2032,
  "##izon": 2033,
  "ga": 2034,
  "tax": 2035,
  "406": 2036,
  "franchisor": 2037,
  "john": 2038,
  "wa": 2039,
  "remarketing": 2040,
  "55": 2041,
  "purposes": 2042,
  "##13": 2043,
  "technical": 2044,
  "referenc": 2045,
  "reserv": 2046,
  "subco": 2047,
  "##lin": 2048,
  "##enix": 2049,
  "registrant": 2050,
  "entities": 2051,
  "province": 2052,
  "dam": 2053,
  "##iences": 2054,
  "##sp": 2055,
  "##91": 2056,
  "##par": 2057,
  "air": 2058,
  "interpretation": 2059,
  "addendum": 2060,
  "nam": 2061,
  "jointly": 2062,
  "03": 2063,
  "pol": 2064,
  "##54": 2065,
  "1001": 2066,
  "accept": 2067,
  "##vd": 2068,
  "customization": 2069,
  "sufficiency": 2070,
  "harmful": 2071,
  "indicated": 2072,
  "execu": 2073,
  "transaction": 2074,
  "vo": 2075,
  "your": 2076,
  "##ests": 2077,
  "37": 2078,
  "blvd": 2079,
  "competitively": 2080,
  "51": 2081,
  "banc": 2082,
  "home": 2083,
  "subsidiaries": 2084,
  "peop": 2085,
  "##porter": 2086,
  "1933": 2087,
  "attachment": 2088,
  "##arious": 2089,
  "transporter": 2090,
  "various": 2091,
  "##du": 2092,
  "documents": 2093,
  "saving": 2094,
  "center": 2095,
  "patents": 2096,
  "wireless": 2097,
  "accep": 2098,
  "##iew": 2099,
  "vide": 2100,
  "univers": 2101,
  "##ases": 2102,
  "##own": 2103,
  "blu": 2104,
  "constit": 2105,
  "make": 2106,
  "applications": 2107,
  "carr": 2108,
  "vari": 2109,
  "##24": 2110,
  "##emic": 2111,
  "legal": 2112,
  "omissions": 2113,
  "##star": 2114,
  "prim": 2115,
  "600": 2116,
  "cro": 2117,
  "##men": 2118,
  "##rease": 2119,
  "subcontr": 2120,
  "40": 2121,
  "costs": 2122,
  "##arding": 2123,
  "deal": 2124,
  "##elf": 2125,
  "chang": 2126,
  "sm": 2127,
  "##he": 2128,
  "2001": 2129,
  "selling": 2130,
  "intend": 2131,
  "investor": 2132,
  "nutrition": 2133,
  "07": 2134,
  "board": 2135,
  "hotel": 2136,
  "fl": 2137,
  "limitation": 2138,
  "mass": 2139,
  "asterisks": 2140,
  "wat": 2141,
  "##ention": 2142,
  "marks": 2143,
  "open": 2144,
  "sim": 2145,
  "aur": 2146,
  "depos": 2147,
  "##etts": 2148,
  "##usetts": 2149,
  "##achusetts": 2150,
  "representative": 2151,
  "massachusetts": 2152,
  "##rect": 2153,
  "hong": 2154,
  "kong": 2155,
  "special": 2156,
  "mad": 2157,
  "people": 2158,
  "##gt": 2159,
  "nv": 2160,
  "savings": 2161,
  "2013": 2162,
  "##ape": 2163,
  "expens": 2164,
  "expenses": 2165,
  "wal": 2166,
  "43": 2167,
  "##going": 2168,
  "##nessee": 2169,
  "construction": 2170,
  "tennessee": 2171,
  "##lly": 2172,
  "ox": 2173,
  "pho": 2174,
  "ord": 2175,
  "television": 2176,
  "##eness": 2177,
  "##ulf": 2178,
  "colorado": 2179,
  "complete": 2180,
  "foregoing": 2181,
  "designated": 2182,
  "700": 2183,
  "aduro": 2184,
  "marath": 2185,
  "marathon": 2186,
  "years": 2187,
  "farm": 2188,
  "sites": 2189,
  "biot": 2190,
  "770": 2191,
  "revenue": 2192,
  "##illage": 2193,
  "##with": 2194,
  "cay": 2195,
  "cayman": 2196,
  "consent": 2197,
  "virt": 2198,
  "commencement": 2199,
  "original": 2200,
  "electronic": 2201,
  "tx": 2202,
  "##icag": 2203,
  "##cle": 2204,
  "chicag": 2205,
  "chicago": 2206,
  "variable": 2207,
  "##fl": 2208,
  "##ecess": 2209,
  "##uston": 2210,
  "houston": 2211,
  "##kom": 2212,
  "##redit": 2213,
  "regarding": 2214,
  "dig": 2215,
  "regulations": 2216,
  "cable": 2217,
  "hs": 2218,
  "##urn": 2219,
  "compens": 2220,
  "solely": 2221,
  "roche": 2222,
  "##yi": 2223,
  "operates": 2224,
  "cir": 2225,
  "##erland": 2226,
  "##inical": 2227,
  "wash": 2228,
  "washington": 2229,
  "text": 2230,
  "responsib": 2231,
  "sing": 2232,
  "registration": 2233,
  "bou": 2234,
  "pf": 2235,
  "mary": 2236,
  "obligation": 2237,
  "met": 2238,
  "##erated": 2239,
  "##acy": 2240,
  "1940": 2241,
  "deposit": 2242,
  "80": 2243,
  "his": 2244,
  "cover": 2245,
  "indirect": 2246,
  "golf": 2247,
  "vi": 2248,
  "germany": 2249,
  "##ium": 2250,
  "##olph": 2251,
  "autom": 2252,
  "concer": 2253,
  "lin": 2254,
  "accur": 2255,
  "enterprises": 2256,
  "carrier": 2257,
  "virginia": 2258,
  "##aim": 2259,
  "##isition": 2260,
  "division": 2261,
  "##gate": 2262,
  "recip": 2263,
  "##enzh": 2264,
  "islands": 2265,
  "shenzh": 2266,
  "##imum": 2267,
  "##levard": 2268,
  "boulevard": 2269,
  "shenzhen": 2270,
  "century": 2271,
  "doll": 2272,
  "biotec": 2273,
  "audit": 2274,
  "##irm": 2275,
  "currently": 2276,
  "executive": 2277,
  "vanc": 2278,
  "##roduc": 2279,
  "##ouver": 2280,
  "vancouver": 2281,
  "increase": 2282,
  "option": 2283,
  "##asc": 2284,
  "those": 2285,
  "water": 2286,
  "phot": 2287,
  "trading": 2288,
  "partic": 2289,
  "##anding": 2290,
  "university": 2291,
  "foods": 2292,
  "rules": 2293,
  "plaz": 2294,
  "##rica": 2295,
  "only": 2296,
  "competition": 2297,
  "ge": 2298,
  "memb": 2299,
  "members": 2300,
  "75": 2301,
  "santa": 2302,
  "##cas": 2303,
  "trade": 2304,
  "clause": 2305,
  "twent": 2306,
  "##eline": 2307,
  "##90": 2308,
  "require": 2309,
  "royalty": 2310,
  "ir": 2311,
  "##well": 2312,
  "enterprise": 2313,
  "polic": 2314,
  "##dale": 2315,
  "compensation": 2316,
  "pac": 2317,
  "##ney": 2318,
  "approved": 2319,
  "##ind": 2320,
  "##orp": 2321,
  "redwood": 2322,
  "##be": 2323,
  "contracts": 2324,
  "tal": 2325,
  "##dr": 2326,
  "##hong": 2327,
  "##erce": 2328,
  "commerce": 2329,
  "95": 2330,
  "africa": 2331,
  "consum": 2332,
  "spinc": 2333,
  "facilities": 2334,
  "spinco": 2335,
  "using": 2336,
  "relating": 2337,
  "gl": 2338,
  "necess": 2339,
  "duties": 2340,
  "digital": 2341,
  "green": 2342,
  "mia": 2343,
  "prev": 2344,
  "court": 2345,
  "damages": 2346,
  "##ave": 2347,
  "comple": 2348,
  "white": 2349,
  "77": 2350,
  "bre": 2351,
  "sublicense": 2352,
  "gulf": 2353,
  "mc": 2354,
  "sole": 2355,
  "##ering": 2356,
  "priv": 2357,
  "##ta": 2358,
  "##lied": 2359,
  "base": 2360,
  "host": 2361,
  "care": 2362,
  "quality": 2363,
  "seg": 2364,
  "9406": 2365,
  "concerning": 2366,
  "industry": 2367,
  "nant": 2368,
  "payments": 2369,
  "maryland": 2370,
  "nantz": 2371,
  "banking": 2372,
  "then": 2373,
  "film": 2374,
  "subscription": 2375,
  "perc": 2376,
  "location": 2377,
  "gent": 2378,
  "ris": 2379,
  "##ple": 2380,
  "##lemen": 2381,
  "production": 2382,
  "mutually": 2383,
  "directly": 2384,
  "subcontract": 2385,
  "gentlemen": 2386,
  "was": 2387,
  "##ug": 2388,
  "assigned": 2389,
  "best": 2390,
  "sky": 2391,
  "##ham": 2392,
  "conver": 2393,
  "clinical": 2394,
  "claim": 2395,
  "mount": 2396,
  "hard": 2397,
  "programm": 2398,
  "32": 2399,
  "##air": 2400,
  "avail": 2401,
  "##ford": 2402,
  "video": 2403,
  "risk": 2404,
  "vn": 2405,
  "##lom": 2406,
  "inst": 2407,
  "broker": 2408,
  "ibm": 2409,
  "2nd": 2410,
  "##ault": 2411,
  "ath": 2412,
  "nan": 2413,
  "about": 2414,
  "called": 2415,
  "extent": 2416,
  "users": 2417,
  "fully": 2418,
  "merchant": 2419,
  "##ls": 2420,
  "connecti": 2421,
  "resourc": 2422,
  "resources": 2423,
  "pub": 2424,
  "##45": 2425,
  "wom": 2426,
  "##mun": 2427,
  "programs": 2428,
  "publish": 2429,
  "##mi": 2430,
  "mail": 2431,
  "reporting": 2432,
  "willing": 2433,
  "include": 2434,
  "restated": 2435,
  "60": 2436,
  "rate": 2437,
  "##mune": 2438,
  "##oney": 2439,
  "##riting": 2440,
  "plaza": 2441,
  "lp": 2442,
  "##genics": 2443,
  "50": 2444,
  "##ever": 2445,
  "same": 2446,
  "leader": 2447,
  "nj": 2448,
  "##esting": 2449,
  "credit": 2450,
  "long": 2451,
  "itself": 2452,
  "governance": 2453,
  "meaning": 2454,
  "acquisition": 2455,
  "bancorp": 2456,
  "poss": 2457,
  "lad": 2458,
  "##zerland": 2459,
  "##itzerland": 2460,
  "switzerland": 2461,
  "ladies": 2462,
  "oh": 2463,
  "##gill": 2464,
  "repl": 2465,
  "cargill": 2466,
  "ohio": 2467,
  "##ling": 2468,
  "acquire": 2469,
  "bos": 2470,
  "##ilar": 2471,
  "county": 2472,
  "similar": 2473,
  "bosch": 2474,
  "included": 2475,
  "domain": 2476,
  "referenced": 2477,
  "teleph": 2478,
  "named": 2479,
  "ant": 2480,
  "cond": 2481,
  "transferred": 2482,
  "supplement": 2483,
  "wil": 2484,
  "healthc": 2485,
  "##ieth": 2486,
  "twentieth": 2487,
  "mort": 2488,
  "constitute": 2489,
  "mortg": 2490,
  "mus": 2491,
  "##nding": 2492,
  "devic": 2493,
  "biop": 2494,
  "mortgage": 2495,
  "##atek": 2496,
  "nat": 2497,
  "##ony": 2498,
  "orders": 2499,
  "completion": 2500,
  "ire": 2501,
  "modify": 2502,
  "main": 2503,
  "women": 2504,
  "less": 2505,
  "##ey": 2506,
  "##xxxx": 2507,
  "confirm": 2508,
  "responsible": 2509,
  "gp": 2510,
  "##ports": 2511,
  "hour": 2512,
  "##28": 2513,
  "##ison": 2514,
  "lux": 2515,
  "04": 2516,
  "contact": 2517,
  "##ology": 2518,
  "jap": 2519,
  "tian": 2520,
  "issuer": 2521,
  "grid": 2522,
  "japan": 2523,
  "wes": 2524,
  "months": 2525,
  "geor": 2526,
  "58": 2527,
  "##oted": 2528,
  "##da": 2529,
  "xenc": 2530,
  "pipeline": 2531,
  "xencor": 2532,
  "##cn": 2533,
  "furn": 2534,
  "apcn": 2535,
  "az": 2536,
  "educ": 2537,
  "trip": 2538,
  "##pt": 2539,
  "##88": 2540,
  "stand": 2541,
  "adv": 2542,
  "##duce": 2543,
  "dip": 2544,
  "assigns": 2545,
  "##lomat": 2546,
  "diplomat": 2547,
  "98": 2548,
  "hills": 2549,
  "har": 2550,
  "##wi": 2551,
  "rele": 2552,
  "indemnification": 2553,
  "disc": 2554,
  "therape": 2555,
  "therapeu": 2556,
  "mid": 2557,
  "##iron": 2558,
  "150": 2559,
  "standard": 2560,
  "gi": 2561,
  "##unc": 2562,
  "introduc": 2563,
  "sells": 2564,
  "proced": 2565,
  "terminate": 2566,
  "install": 2567,
  "hat": 2568,
  "##ustin": 2569,
  "##tek": 2570,
  "##ecom": 2571,
  "##osure": 2572,
  "subcontractor": 2573,
  "therapeutics": 2574,
  "##ca": 2575,
  "400": 2576,
  "pp": 2577,
  "sf": 2578,
  "##dc": 2579,
  "arizon": 2580,
  "telecom": 2581,
  "arizona": 2582,
  "606": 2583,
  "kub": 2584,
  "sciences": 2585,
  "kubient": 2586,
  "appe": 2587,
  "##ju": 2588,
  "##lot": 2589,
  "hof": 2590,
  "healthcare": 2591,
  "##uit": 2592,
  "##12": 2593,
  "##alm": 2594,
  "strem": 2595,
  "agents": 2596,
  "far": 2597,
  "##xon": 2598,
  "introduction": 2599,
  "ear": 2600,
  "displ": 2601,
  "13g": 2602,
  "western": 2603,
  "display": 2604,
  "canc": 2605,
  "fax": 2606,
  "neither": 2607,
  "certi": 2608,
  "##tives": 2609,
  "merchand": 2610,
  "##atives": 2611,
  "##ges": 2612,
  "controll": 2613,
  "mun": 2614,
  "##gical": 2615,
  "former": 2616,
  "surgical": 2617,
  "replac": 2618,
  "##tz": 2619,
  "##sequ": 2620,
  "counter": 2621,
  "vend": 2622,
  "case": 2623,
  "##earing": 2624,
  "ncm": 2625,
  "thereunder": 2626,
  "these": 2627,
  "1900": 2628,
  "tech": 2629,
  "instr": 2630,
  "successor": 2631,
  "divers": 2632,
  "fasc": 2633,
  "prop": 2634,
  "sut": 2635,
  "documentation": 2636,
  "industries": 2637,
  "##orts": 2638,
  "##ams": 2639,
  "phys": 2640,
  "##ious": 2641,
  "six": 2642,
  "invent": 2643,
  "servicing": 2644,
  "england": 2645,
  "house": 2646,
  "##shore": 2647,
  "continu": 2648,
  "real": 2649,
  "parkway": 2650,
  "wholly": 2651,
  "der": 2652,
  "hu": 2653,
  "responsibilities": 2654,
  "luc": 2655,
  "##stone": 2656,
  "##quid": 2657,
  "blackstone": 2658,
  "##boy": 2659,
  "playboy": 2660,
  "##32": 2661,
  "private": 2662,
  "##zz": 2663,
  "db": 2664,
  "sta": 2665,
  "##cast": 2666,
  "##pin": 2667,
  "##ring": 2668,
  "available": 2669,
  "mor": 2670,
  "thereof": 2671,
  "respective": 2672,
  "our": 2673,
  "rub": 2674,
  "##force": 2675,
  "breach": 2676,
  "pet": 2677,
  "become": 2678,
  "azul": 2679,
  "unt": 2680,
  "##arma": 2681,
  "dealer": 2682,
  "tor": 2683,
  "v6": 2684,
  "##agraph": 2685,
  "networks": 2686,
  "receiv": 2687,
  "arrang": 2688,
  "mach": 2689,
  "servicer": 2690,
  "##olina": 2691,
  "carolina": 2692,
  "physici": 2693,
  "pare": 2694,
  "##ably": 2695,
  "farms": 2696,
  "cost": 2697,
  "##tk": 2698,
  "##active": 2699,
  "dba": 2700,
  "ill": 2701,
  "interests": 2702,
  "##tional": 2703,
  "schedules": 2704,
  "employee": 2705,
  "denoted": 2706,
  "##ota": 2707,
  "pacific": 2708,
  "cr": 2709,
  "md": 2710,
  "05": 2711,
  "ft": 2712,
  "thr": 2713,
  "user": 2714,
  "##inois": 2715,
  "necessary": 2716,
  "illinois": 2717,
  "telkom": 2718,
  "06": 2719,
  "da": 2720,
  "federated": 2721,
  "hydr": 2722,
  "five": 2723,
  "markets": 2724,
  "##cha": 2725,
  "personal": 2726,
  "kingd": 2727,
  "las": 2728,
  "cisco": 2729,
  "##cut": 2730,
  "##llo": 2731,
  "administrator": 2732,
  "connecticut": 2733,
  "phoenix": 2734,
  "##gas": 2735,
  "##xi": 2736,
  "paragraph": 2737,
  "lease": 2738,
  "sam": 2739,
  "##portun": 2740,
  "instit": 2741,
  "promotional": 2742,
  "opportun": 2743,
  "2003": 2744,
  "security": 2745,
  "austin": 2746,
  "##po": 2747,
  "##gear": 2748,
  "netgear": 2749,
  "tripath": 2750,
  "##si": 2751,
  "maj": 2752,
  "benefit": 2753,
  "way": 2754,
  "##icing": 2755,
  "##ourg": 2756,
  "##embourg": 2757,
  "luxembourg": 2758,
  "apply": 2759,
  "due": 2760,
  "disclosure": 2761,
  "liquid": 2762,
  "dolph": 2763,
  "##com": 2764,
  "ty": 2765,
  "##to": 2766,
  "inf": 2767,
  "##ague": 2768,
  "exxon": 2769,
  "##ceed": 2770,
  "boxlot": 2771,
  "continue": 2772,
  "##ko": 2773,
  "##pa": 2774,
  "disp": 2775,
  "squ": 2776,
  "tou": 2777,
  "requirements": 2778,
  "jose": 2779,
  "mon": 2780,
  "consumer": 2781,
  "quick": 2782,
  "ehave": 2783,
  "primary": 2784,
  "furnish": 2785,
  "900": 2786,
  "line": 2787,
  "village": 2788,
  "extend": 2789,
  "sharehol": 2790,
  "pack": 2791,
  "dem": 2792,
  "##ndix": 2793,
  "programming": 2794,
  "appendix": 2795,
  "gro": 2796,
  "rad": 2797,
  "terminated": 2798,
  "blo": 2799,
  "writing": 2800,
  "##icon": 2801,
  "valid": 2802,
  "previous": 2803,
  "90": 2804,
  "acting": 2805,
  "chase": 2806,
  "benefic": 2807,
  "gold": 2808,
  "##tron": 2809,
  "promote": 2810,
  "associated": 2811,
  "eq": 2812,
  "##con": 2813,
  "sections": 2814,
  "default": 2815,
  "phil": 2816,
  "nonex": 2817,
  "##clusive": 2818,
  "administrative": 2819,
  "nonexclusive": 2820,
  "comware": 2821,
  "separate": 2822,
  "telephone": 2823,
  "equal": 2824,
  "8th": 2825,
  "cell": 2826,
  "##cell": 2827,
  "##idian": 2828,
  "warranty": 2829,
  "##gated": 2830,
  "deuts": 2831,
  "watch": 2832,
  "particip": 2833,
  "deutsche": 2834,
  "##ble": 2835,
  "##ogen": 2836,
  "85": 2837,
  "chap": 2838,
  "vegas": 2839,
  "hearing": 2840,
  "niss": 2841,
  "##ected": 2842,
  "permitted": 2843,
  "94063": 2844,
  "nissin": 2845,
  "##mark": 2846,
  "retail": 2847,
  "three": 2848,
  "##ersons": 2849,
  "franc": 2850,
  "1997": 2851,
  "counterpar": 2852,
  "er": 2853,
  "##rup": 2854,
  "anderson": 2855,
  "shi": 2856,
  "xi": 2857,
  "zhong": 2858,
  "generation": 2859,
  "acknowledge": 2860,
  "##ara": 2861,
  "efforts": 2862,
  "interactive": 2863,
  "therein": 2864,
  "signed": 2865,
  "matt": 2866,
  "##fa": 2867,
  "music": 2868,
  "matters": 2869,
  "08": 2870,
  "viv": 2871,
  "approval": 2872,
  "reasonable": 2873,
  "rog": 2874,
  "ts": 2875,
  "##gel": 2876,
  "rogers": 2877,
  "##ral": 2878,
  "clarus": 2879,
  "percent": 2880,
  "die": 2881,
  "present": 2882,
  "semic": 2883,
  "##agen": 2884,
  "brav": 2885,
  "investments": 2886,
  "##onduct": 2887,
  "vivint": 2888,
  "semiconduct": 2889,
  "bravatek": 2890,
  "separation": 2891,
  "dong": 2892,
  "kit": 2893,
  "labor": 2894,
  "##cel": 2895,
  "##ily": 2896,
  "##ident": 2897,
  "arising": 2898,
  "represented": 2899,
  "##son": 2900,
  "##ank": 2901,
  "##ulgated": 2902,
  "promulgated": 2903,
  "uk": 2904,
  "##71": 2905,
  "short": 2906,
  "fail": 2907,
  "##gia": 2908,
  "things": 2909,
  "compon": 2910,
  "whether": 2911,
  "manner": 2912,
  "science": 2913,
  "segments": 2914,
  "ireland": 2915,
  "georgia": 2916,
  "##des": 2917,
  "agreem": 2918,
  "##chstar": 2919,
  "advisor": 2920,
  "touchstar": 2921,
  "down": 2922,
  "ms": 2923,
  "##mond": 2924,
  "leju": 2925,
  "station": 2926,
  "resul": 2927,
  "2002": 2928,
  "maintains": 2929,
  "benefits": 2930,
  "sfj": 2931,
  "over": 2932,
  "properties": 2933,
  "##hua": 2934,
  "until": 2935,
  "39": 2936,
  "taxes": 2937,
  "gink": 2938,
  "wy": 2939,
  "##thern": 2940,
  "room": 2941,
  "diego": 2942,
  "ginkgo": 2943,
  "wyzz": 2944,
  "101": 2945,
  "added": 2946,
  "immun": 2947,
  "accepts": 2948,
  "##jr": 2949,
  "nex": 2950,
  "##210": 2951,
  "##ves": 2952,
  "manual": 2953,
  "loss": 2954,
  "mountain": 2955,
  "wide": 2956,
  "kee": 2957,
  "underw": 2958,
  "governed": 2959,
  "##ho": 2960,
  "##ular": 2961,
  "500": 2962,
  "##ile": 2963,
  "force": 2964,
  "dise": 2965,
  "block": 2966,
  "demand": 2967,
  "##001": 2968,
  "solar": 2969,
  "##nder": 2970,
  "plac": 2971,
  "jana": 2972,
  "hardware": 2973,
  "250": 2974,
  "distributorship": 2975,
  "pty": 2976,
  "##ston": 2977,
  "thereafter": 2978,
  "electric": 2979,
  "deter": 2980,
  "talent": 2981,
  "hereafter": 2982,
  "##ping": 2983,
  "exxonmo": 2984,
  "includes": 2985,
  "circle": 2986,
  "formerly": 2987,
  "entire": 2988,
  "unco": 2989,
  "loop": 2990,
  "successors": 2991,
  "operate": 2992,
  "##tenyi": 2993,
  "miltenyi": 2994,
  "uncondi": 2995,
  "##val": 2996,
  "restr": 2997,
  "seatt": 2998,
  "book": 2999,
  "league": 3000,
  "visa": 3001,
  "mis": 3002,
  "##ler": 3003,
  "town": 3004,
  "opening": 3005,
  "insp": 3006,
  "depomed": 3007,
  "francisco": 3008,
  "fut": 3009,
  "policy": 3010,
  "nfl": 3011,
  "maim": 3012,
  "pharma": 3013,
  "maimon": 3014,
  "##ante": 3015,
  "##amber": 3016,
  "attor": 3017,
  "##oneer": 3018,
  "##avante": 3019,
  "accounts": 3020,
  "veoneer": 3021,
  "metavante": 3022,
  "shareholder": 3023,
  "bay": 3024,
  "vol": 3025,
  "##ored": 3026,
  "105": 3027,
  "delay": 3028,
  "haidian": 3029,
  "bioamber": 3030,
  "future": 3031,
  "hem": 3032,
  "guaranty": 3033,
  "89": 3034,
  "eg": 3035,
  "take": 3036,
  "##icit": 3037,
  "madison": 3038,
  "egain": 3039,
  "tar": 3040,
  "employment": 3041,
  "334": 3042,
  "##data": 3043,
  "entit": 3044,
  "calm": 3045,
  "however": 3046,
  "blue": 3047,
  "##osing": 3048,
  "solicit": 3049,
  "skype": 3050,
  "procedures": 3051,
  "euro": 3052,
  "##ete": 3053,
  "sever": 3054,
  "valueact": 3055,
  "##tise": 3056,
  "chem": 3057,
  "list": 3058,
  "##iro": 3059,
  "##card": 3060,
  "alloc": 3061,
  "vnue": 3062,
  "hours": 3063,
  "rubicon": 3064,
  "##hic": 3065,
  "bii": 3066,
  "vehic": 3067,
  "changes": 3068,
  "education": 3069,
  "palm": 3070,
  "##tree": 3071,
  "##her": 3072,
  "##ette": 3073,
  "sun": 3074,
  "##ofi": 3075,
  "sanofi": 3076,
  "equity": 3077,
  "stremick": 3078,
  "formation": 3079,
  "quant": 3080,
  "standards": 3081,
  "bell": 3082,
  "##81": 3083,
  "##ody": 3084,
  "accuracy": 3085,
  "merc": 3086,
  "oth": 3087,
  "##anic": 3088,
  "##ivent": 3089,
  "thrivent": 3090,
  "fer": 3091,
  "later": 3092,
  "ul": 3093,
  "##edom": 3094,
  "least": 3095,
  "140": 3096,
  "freedom": 3097,
  "vendor": 3098,
  "##atter": 3099,
  "##ican": 3100,
  "attachments": 3101,
  "exxonmobil": 3102,
  "last": 3103,
  "lake": 3104,
  "##iets": 3105,
  "##hc": 3106,
  "##icum": 3107,
  "ediets": 3108,
  "offshore": 3109,
  "restric": 3110,
  "bellicum": 3111,
  "##ati": 3112,
  "##uity": 3113,
  "##101": 3114,
  "##ense": 3115,
  "managed": 3116,
  "must": 3117,
  "##hire": 3118,
  "##mann": 3119,
  "##istent": 3120,
  "##uration": 3121,
  "phl": 3122,
  "sat": 3123,
  "##ci": 3124,
  "##ource": 3125,
  "333": 3126,
  "acha": 3127,
  "mineral": 3128,
  "attorney": 3129,
  "achaogen": 3130,
  "##ior": 3131,
  "miami": 3132,
  "possess": 3133,
  "officer": 3134,
  "##arters": 3135,
  "deriv": 3136,
  "determin": 3137,
  "mr": 3138,
  "##utes": 3139,
  "ki": 3140,
  "pres": 3141,
  "conform": 3142,
  "##ocol": 3143,
  "investors": 3144,
  "closing": 3145,
  "minimum": 3146,
  "hd": 3147,
  "##onia": 3148,
  "india": 3149,
  "persons": 3150,
  "##den": 3151,
  "acsi": 3152,
  "sets": 3153,
  "semiconductor": 3154,
  "read": 3155,
  "alfa": 3156,
  "allocation": 3157,
  "entr": 3158,
  "##tices": 3159,
  "counterparts": 3160,
  "mich": 3161,
  "##ists": 3162,
  "conqu": 3163,
  "principle": 3164,
  "drug": 3165,
  "merger": 3166,
  "expertise": 3167,
  "conquer": 3168,
  "nether": 3169,
  "netherlands": 3170,
  "hum": 3171,
  "##ize": 3172,
  "annuity": 3173,
  "devices": 3174,
  "we": 3175,
  "##point": 3176,
  "reit": 3177,
  "herewith": 3178,
  "formed": 3179,
  "##akes": 3180,
  "010": 3181,
  "bankrup": 3182,
  "represents": 3183,
  "authority": 3184,
  "fle": 3185,
  "##inet": 3186,
  "##000": 3187,
  "controls": 3188,
  "cyber": 3189,
  "human": 3190,
  "##oria": 3191,
  "liabilities": 3192,
  "sublicens": 3193,
  "mac": 3194,
  "##ured": 3195,
  "facility": 3196,
  "integrated": 3197,
  "ehs": 3198,
  "virtual": 3199,
  "##ris": 3200,
  "##tcy": 3201,
  "kingdom": 3202,
  "bankruptcy": 3203,
  "sil": 3204,
  "begin": 3205,
  "smith": 3206,
  "##nes": 3207,
  "##bs": 3208,
  "employees": 3209,
  "usage": 3210,
  "issue": 3211,
  "completeness": 3212,
  "111": 3213,
  "attention": 3214,
  "element": 3215,
  "machines": 3216,
  "##field": 3217,
  "income": 3218,
  "file": 3219,
  "broadcast": 3220,
  "even": 3221,
  "##sop": 3222,
  "forms": 3223,
  "30th": 3224,
  "throughout": 3225,
  "headqu": 3226,
  "57": 3227,
  "utek": 3228,
  "adap": 3229,
  "airsop": 3230,
  "dollar": 3231,
  "square": 3232,
  "dyn": 3233,
  "mal": 3234,
  "ridge": 3235,
  "##vers": 3236,
  "replaced": 3237,
  "headquarters": 3238,
  "nav": 3239,
  "##ei": 3240,
  "##han": 3241,
  "##anley": 3242,
  "forty": 3243,
  "##ares": 3244,
  "##oliv": 3245,
  "stanley": 3246,
  "trib": 3247,
  "subst": 3248,
  "##anche": 3249,
  "engine": 3250,
  "import": 3251,
  "autoliv": 3252,
  "diseases": 3253,
  "beach": 3254,
  "see": 3255,
  "employer": 3256,
  "wade": 3257,
  "##aging": 3258,
  "proj": 3259,
  "entitled": 3260,
  "##41": 3261,
  "3rd": 3262,
  "point": 3263,
  "##lit": 3264,
  "##iem": 3265,
  "##ana": 3266,
  "action": 3267,
  "substant": 3268,
  "split": 3269,
  "invo": 3270,
  "##timmune": 3271,
  "adaptimmune": 3272,
  "rock": 3273,
  "covenant": 3274,
  "##avance": 3275,
  "theravance": 3276,
  "commencing": 3277,
  "102": 3278,
  "transferable": 3279,
  "profit": 3280,
  "art": 3281,
  "medi": 3282,
  "associates": 3283,
  "review": 3284,
  "bioph": 3285,
  "##eg": 3286,
  "whereby": 3287,
  "mob": 3288,
  "scot": 3289,
  "##mp": 3290,
  "pricing": 3291,
  "finance": 3292,
  "##mits": 3293,
  "##tically": 3294,
  "##riter": 3295,
  "conduc": 3296,
  "determined": 3297,
  "zone": 3298,
  "anal": 3299,
  "interf": 3300,
  "14th": 3301,
  "detail": 3302,
  "##itable": 3303,
  "23rd": 3304,
  "gridiron": 3305,
  "thom": 3306,
  "##adium": 3307,
  "stadium": 3308,
  "129": 3309,
  "clients": 3310,
  "revmed": 3311,
  "##ound": 3312,
  "websites": 3313,
  "##ying": 3314,
  "##version": 3315,
  "conversion": 3316,
  "specifications": 3317,
  "ba": 3318,
  "##vine": 3319,
  "bru": 3320,
  "210": 3321,
  "experience": 3322,
  "9261": 3323,
  "irvine": 3324,
  "##bv": 3325,
  "again": 3326,
  "##rest": 3327,
  "establishment": 3328,
  "ok": 3329,
  "##ush": 3330,
  "medic": 3331,
  "diag": 3332,
  "natur": 3333,
  "gs": 3334,
  "hertz": 3335,
  "##axy": 3336,
  "collaborative": 3337,
  "galaxy": 3338,
  "reservation": 3339,
  "36": 3340,
  "rare": 3341,
  "tun": 3342,
  "##fol": 3343,
  "##mf": 3344,
  "##42": 3345,
  "blackwell": 3346,
  "##casts": 3347,
  "mcdata": 3348,
  "##olds": 3349,
  "spin": 3350,
  "likeness": 3351,
  "##urren": 3352,
  "oil": 3353,
  "##vi": 3354,
  "leading": 3355,
  "multiple": 3356,
  "bli": 3357,
  "##ives": 3358,
  "prc": 3359,
  "##ifax": 3360,
  "##erald": 3361,
  "emerald": 3362,
  "##aste": 3363,
  "equifax": 3364,
  "given": 3365,
  "chapter": 3366,
  "es": 3367,
  "pap": 3368,
  "exhibits": 3369,
  "engages": 3370,
  "acceptance": 3371,
  "parent": 3372,
  "against": 3373,
  "fcc": 3374,
  "mee": 3375,
  "##pet": 3376,
  "##66": 3377,
  "##ially": 3378,
  "perpet": 3379,
  "government": 3380,
  "tool": 3381,
  "##uty": 3382,
  "liable": 3383,
  "desiro": 3384,
  "##load": 3385,
  "##ief": 3386,
  "oaktree": 3387,
  "petro": 3388,
  "chemical": 3389,
  "desirous": 3390,
  "##aster": 3391,
  "##ords": 3392,
  "improv": 3393,
  "reserved": 3394,
  "104": 3395,
  "uni": 3396,
  "advisors": 3397,
  "minnes": 3398,
  "unconditional": 3399,
  "minnesota": 3400,
  "##urs": 3401,
  "940": 3402,
  "mhc": 3403,
  "xin": 3404,
  "notices": 3405,
  "##ferred": 3406,
  "neweg": 3407,
  "branded": 3408,
  "vert": 3409,
  "extens": 3410,
  "administration": 3411,
  "recipient": 3412,
  "newegg": 3413,
  "ast": 3414,
  "plc": 3415,
  "directors": 3416,
  "esc": 3417,
  "thous": 3418,
  "prac": 3419,
  "macro": 3420,
  "thousand": 3421,
  "vot": 3422,
  "##ocast": 3423,
  "##ances": 3424,
  "votocast": 3425,
  "exerc": 3426,
  "mastercard": 3427,
  "wells": 3428,
  "##tronics": 3429,
  "bar": 3430,
  "sic": 3431,
  "sports": 3432,
  "loan": 3433,
  "integrity": 3434,
  "escrow": 3435,
  "vet": 3436,
  "##oks": 3437,
  "##wer": 3438,
  "##izations": 3439,
  "nfla": 3440,
  "entering": 3441,
  "chief": 3442,
  "accounting": 3443,
  "merck": 3444,
  "ce": 3445,
  "##62": 3446,
  "estate": 3447,
  "david": 3448,
  "testing": 3449,
  "##oma": 3450,
  "##ansas": 3451,
  "remov": 3452,
  "accepted": 3453,
  "projects": 3454,
  "honey": 3455,
  "sen": 3456,
  "bridge": 3457,
  "##arman": 3458,
  "senior": 3459,
  "perpetual": 3460,
  "zebr": 3461,
  "##tl": 3462,
  "they": 3463,
  "managing": 3464,
  "abw": 3465,
  "zebra": 3466,
  "fte": 3467,
  "##aspin": 3468,
  "certe": 3469,
  "11th": 3470,
  "9440": 3471,
  "guid": 3472,
  "expressly": 3473,
  "highway": 3474,
  "hydraspin": 3475,
  "certegy": 3476,
  "7th": 3477,
  "##ano": 3478,
  "managers": 3479,
  "pati": 3480,
  "aura": 3481,
  "eut": 3482,
  "hen": 3483,
  "##etter": 3484,
  "##ectix": 3485,
  "limitations": 3486,
  "binding": 3487,
  "publishers": 3488,
  "major": 3489,
  "others": 3490,
  "eutectix": 3491,
  "950": 3492,
  "light": 3493,
  "consultation": 3494,
  "240": 3495,
  "patent": 3496,
  "automa": 3497,
  "artara": 3498,
  "##73": 3499,
  "##igan": 3500,
  "designee": 3501,
  "remain": 3502,
  "claims": 3503,
  "michigan": 3504,
  "airsopure": 3505,
  "nice": 3506,
  "zy": 3507,
  "##glob": 3508,
  "##nga": 3509,
  "stated": 3510,
  "drko": 3511,
  "emer": 3512,
  "download": 3513,
  "zynga": 3514,
  "drkoop": 3515,
  "dat": 3516,
  "hps": 3517,
  "clara": 3518,
  "95054": 3519,
  "xli": 3520,
  "##69": 3521,
  "##ya": 3522,
  "transition": 3523,
  "promoter": 3524,
  "fuel": 3525,
  "appointed": 3526,
  "mot": 3527,
  "##ices": 3528,
  "##chonia": 3529,
  "##ips": 3530,
  "undert": 3531,
  "timely": 3532,
  "erchonia": 3533,
  "motor": 3534,
  "charges": 3535,
  "piphan": 3536,
  "cross": 3537,
  "piphany": 3538,
  "vyer": 3539,
  "##na": 3540,
  "tom": 3541,
  "symb": 3542,
  "expense": 3543,
  "vyera": 3544,
  "symbol": 3545,
  "ice": 3546,
  "##angh": 3547,
  "##eted": 3548,
  "const": 3549,
  "shangh": 3550,
  "##medi": 3551,
  "shanghai": 3552,
  "sem": 3553,
  "mak": 3554,
  "375": 3555,
  "aig": 3556,
  "##fs": 3557,
  "##15": 3558,
  "consists": 3559,
  "transl": 3560,
  "bellev": 3561,
  "changepoint": 3562,
  "bloom": 3563,
  "bellevue": 3564,
  "65": 3565,
  "##mer": 3566,
  "##uder": 3567,
  "##trong": 3568,
  "arms": 3569,
  "appro": 3570,
  "braz": 3571,
  "representatives": 3572,
  "lauder": 3573,
  "##044": 3574,
  "armstrong": 3575,
  "brazil": 3576,
  "lauderdale": 3577,
  "021": 3578,
  "##met": 3579,
  "prime": 3580,
  "microgenics": 3581,
  "921": 3582,
  "sand": 3583,
  "##iger": 3584,
  "##ograph": 3585,
  "portion": 3586,
  "liquidmet": 3587,
  "liquidmetal": 3588,
  "mag": 3589,
  "zog": 3590,
  "##ycl": 3591,
  "##ui": 3592,
  "##ucture": 3593,
  "##sci": 3594,
  "photo": 3595,
  "zogenix": 3596,
  "gmb": 3597,
  "lab": 3598,
  "mill": 3599,
  "##asse": 3600,
  "nov": 3601,
  "morgan": 3602,
  "type": 3603,
  "gmbh": 3604,
  "bill": 3605,
  "##aur": 3606,
  "cht": 3607,
  "audits": 3608,
  "restaur": 3609,
  "sage": 3610,
  "assu": 3611,
  "immedi": 3612,
  "model": 3613,
  "monthly": 3614,
  "##aneous": 3615,
  "##brush": 3616,
  "sagebrush": 3617,
  "omits": 3618,
  "##day": 3619,
  "central": 3620,
  "##soft": 3621,
  "healthgate": 3622,
  "results": 3623,
  "ess": 3624,
  "pot": 3625,
  "##resse": 3626,
  "need": 3627,
  "##ivity": 3628,
  "exclusivity": 3629,
  "cyt": 3630,
  "wales": 3631,
  "analys": 3632,
  "diagn": 3633,
  "mg": 3634,
  "##iel": 3635,
  "##roduce": 3636,
  "##odyn": 3637,
  "phase": 3638,
  "solution": 3639,
  "##cripts": 3640,
  "navig": 3641,
  "cytodyn": 3642,
  "clic": 3643,
  "sn": 3644,
  "##scripts": 3645,
  "commence": 3646,
  "allscripts": 3647,
  "bound": 3648,
  "enforce": 3649,
  "dollars": 3650,
  "##gu": 3651,
  "##west": 3652,
  "##water": 3653,
  "sum": 3654,
  "conflic": 3655,
  "wood": 3656,
  "click": 3657,
  "##oa": 3658,
  "regard": 3659,
  "dolphins": 3660,
  "vehicles": 3661,
  "automatically": 3662,
  "turn": 3663,
  "##agem": 3664,
  "chen": 3665,
  "explor": 3666,
  "covered": 3667,
  "meeting": 3668,
  "kall": 3669,
  "##lah": 3670,
  "##14": 3671,
  "##izer": 3672,
  "grantor": 3673,
  "reasonably": 3674,
  "pfizer": 3675,
  "oklah": 3676,
  "analysis": 3677,
  "kallo": 3678,
  "##ream": 3679,
  "##lytics": 3680,
  "##stream": 3681,
  "preferred": 3682,
  "##wound": 3683,
  "cardlytics": 3684,
  "mediwound": 3685,
  "787": 3686,
  "anth": 3687,
  "cb": 3688,
  "nation": 3689,
  "vit": 3690,
  "biopharma": 3691,
  "anthemic": 3692,
  "##rer": 3693,
  "##ued": 3694,
  "enable": 3695,
  "fis": 3696,
  "ubs": 3697,
  "##ini": 3698,
  "delivers": 3699,
  "denote": 3700,
  "assistance": 3701,
  "diversinet": 3702,
  "##ories": 3703,
  "##kshire": 3704,
  "industrial": 3705,
  "hyatt": 3706,
  "expressway": 3707,
  "berkshire": 3708,
  "##ularly": 3709,
  "ple": 3710,
  "##other": 3711,
  "pcq": 3712,
  "relationships": 3713,
  "wild": 3714,
  "63": 3715,
  "piv": 3716,
  "view": 3717,
  "thirty": 3718,
  "advertisement": 3719,
  "entrust": 3720,
  "restaurant": 3721,
  "tra": 3722,
  "##ellite": 3723,
  "appear": 3724,
  "sold": 3725,
  "telnet": 3726,
  "governing": 3727,
  "hyde": 3728,
  "channels": 3729,
  "satellite": 3730,
  "natural": 3731,
  "gate": 3732,
  "rich": 3733,
  "sap": 3734,
  "##jing": 3735,
  "insu": 3736,
  "nanjing": 3737,
  "91": 3738,
  "##nel": 3739,
  "##icor": 3740,
  "comb": 3741,
  "when": 3742,
  "elect": 3743,
  "personnel": 3744,
  "recordation": 3745,
  "ball": 3746,
  "key": 3747,
  "##99": 3748,
  "emv": 3749,
  "atl": 3750,
  "ultr": 3751,
  "070": 3752,
  "ez": 3753,
  "wack": 3754,
  "##erry": 3755,
  "adj": 3756,
  "cherry": 3757,
  "1600": 3758,
  "upd": 3759,
  "##ksga": 3760,
  "munksga": 3761,
  "thomas": 3762,
  "12965": 3763,
  "wacker": 3764,
  "munksgaard": 3765,
  "rgh": 3766,
  "##vant": 3767,
  "area": 3768,
  "times": 3769,
  "automo": 3770,
  "merchandising": 3771,
  "essi": 3772,
  "aes": 3773,
  "##md": 3774,
  "max": 3775,
  "emde": 3776,
  "webmd": 3777,
  "indicates": 3778,
  "relevant": 3779,
  "ezjr": 3780,
  "aesar": 3781,
  "emdeon": 3782,
  "44": 3783,
  "##ray": 3784,
  "##ables": 3785,
  "##inating": 3786,
  "##rett": 3787,
  "broadway": 3788,
  "staar": 3789,
  "immediately": 3790,
  "cash": 3791,
  "lou": 3792,
  "mel": 3793,
  "mur": 3794,
  "utk": 3795,
  "tower": 3796,
  "##ceanic": 3797,
  "##bert": 3798,
  "wildform": 3799,
  "murray": 3800,
  "hor": 3801,
  "oceanic": 3802,
  "##uck": 3803,
  "warner": 3804,
  "annual": 3805,
  "components": 3806,
  "maximum": 3807,
  "lond": 3808,
  "london": 3809,
  "miss": 3810,
  "on2": 3811,
  "notes": 3812,
  "##ames": 3813,
  "##sugel": 3814,
  "capsugel": 3815,
  "converge": 3816,
  "macrogenics": 3817,
  "d2": 3818,
  "##yette": 3819,
  "##dg": 3820,
  "##til": 3821,
  "woods": 3822,
  "##vention": 3823,
  "9410": 3824,
  "underst": 3825,
  "##rick": 3826,
  "intends": 3827,
  "bruyette": 3828,
  "oklahoma": 3829,
  "lane": 3830,
  "pel": 3831,
  "van": 3832,
  "##rent": 3833,
  "cool": 3834,
  "cardax": 3835,
  "pelican": 3836,
  "bp": 3837,
  "util": 3838,
  "##31": 3839,
  "##68": 3840,
  "##ches": 3841,
  "specifically": 3842,
  "##bridge": 3843,
  "##spa": 3844,
  "watchit": 3845,
  "failure": 3846,
  "keefe": 3847,
  "dgt": 3848,
  "nin": 3849,
  "##lear": 3850,
  "##leum": 3851,
  "dex": 3852,
  "##uns": 3853,
  "arrangement": 3854,
  "petroleum": 3855,
  "niners": 3856,
  "via": 3857,
  "##ios": 3858,
  "##pd": 3859,
  "biotechn": 3860,
  "nationwide": 3861,
  "750": 3862,
  "wpd": 3863,
  "xspa": 3864,
  "##ni": 3865,
  "asp": 3866,
  "organization": 3867,
  "return": 3868,
  "duval": 3869,
  "##gery": 3870,
  "bis": 3871,
  "pj": 3872,
  "##au": 3873,
  "##urg": 3874,
  "companion": 3875,
  "bey": 3876,
  "resort": 3877,
  "##mont": 3878,
  "bisys": 3879,
  "5th": 3880,
  "##usion": 3881,
  "before": 3882,
  "definition": 3883,
  "flooring": 3884,
  "certif": 3885,
  "38": 3886,
  "##cs": 3887,
  "##eles": 3888,
  "deb": 3889,
  "four": 3890,
  "adams": 3891,
  "circ": 3892,
  "bur": 3893,
  "##voc": 3894,
  "##ibility": 3895,
  "grantee": 3896,
  "construed": 3897,
  "controlled": 3898,
  "##fers": 3899,
  "##zee": 3900,
  "##ecall": 3901,
  "##ared": 3902,
  "basel": 3903,
  "netzee": 3904,
  "primecall": 3905,
  "##erate": 3906,
  "reed": 3907,
  "allied": 3908,
  "graph": 3909,
  "fargo": 3910,
  "gw": 3911,
  "n°": 3912,
  "were": 3913,
  "##ores": 3914,
  "enforceable": 3915,
  "gwg": 3916,
  "os": 3917,
  "##mental": 3918,
  "consequ": 3919,
  "##apore": 3920,
  "competit": 3921,
  "impresse": 3922,
  "10022": 3923,
  "singapore": 3924,
  "indirectly": 3925,
  "##tal": 3926,
  "##ids": 3927,
  "onc": 3928,
  "class": 3929,
  "mpl": 3930,
  "##wy": 3931,
  "performed": 3932,
  "chartered": 3933,
  "##rovax": 3934,
  "statements": 3935,
  "course": 3936,
  "franchised": 3937,
  "sutrovax": 3938,
  "##globe": 3939,
  "oncology": 3940,
  "##ii": 3941,
  "exceed": 3942,
  "spe": 3943,
  "consider": 3944,
  "verizon": 3945,
  "calling": 3946,
  "qi": 3947,
  "##ao": 3948,
  "##ask": 3949,
  "exact": 3950,
  "##omic": 3951,
  "capable": 3952,
  "image": 3953,
  "##216": 3954,
  "facil": 3955,
  "biocept": 3956,
  "cancer": 3957,
  "ang": 3958,
  "mate": 3959,
  "##wan": 3960,
  "closed": 3961,
  "mateo": 3962,
  "##004": 3963,
  "170": 3964,
  "assignments": 3965,
  "receive": 3966,
  "quote": 3967,
  "tade": 3968,
  "##85": 3969,
  "true": 3970,
  "internal": 3971,
  "accuray": 3972,
  "receivables": 3973,
  "previously": 3974,
  "diagnos": 3975,
  "tadeo": 3976,
  "##cy": 3977,
  "excluding": 3978,
  "offered": 3979,
  "country": 3980,
  "nuance": 3981,
  "henry": 3982,
  "zan": 3983,
  "proc": 3984,
  "##otti": 3985,
  "##prus": 3986,
  "cyprus": 3987,
  "steering": 3988,
  "array": 3989,
  "auriem": 3990,
  "zanotti": 3991,
  "auriemma": 3992,
  "ehn": 3993,
  "faz": 3994,
  "##itive": 3995,
  "##ha": 3996,
  "##311": 3997,
  "##arter": 3998,
  "quarter": 3999,
  "consequential": 4000,
  "jack": 4001,
  "river": 4002,
  "##aming": 4003,
  "12th": 4004,
  "jhu": 4005,
  "rap": 4006,
  "tda": 4007,
  "##ese": 4008,
  "##ability": 4009,
  "##empl": 4010,
  "does": 4011,
  "athens": 4012,
  "physicians": 4013,
  "rapid": 4014,
  "##tax": 4015,
  "subsequ": 4016,
  "contrib": 4017,
  "outside": 4018,
  "##ensive": 4019,
  "nettax": 4020,
  "pacificap": 4021,
  "nexstar": 4022,
  "practi": 4023,
  "translation": 4024,
  "subsequent": 4025,
  "nettaxi": 4026,
  "##enta": 4027,
  "##enn": 4028,
  "tour": 4029,
  "##very": 4030,
  "assurance": 4031,
  "##ples": 4032,
  "protection": 4033,
  "v6c": 4034,
  "##sonville": 4035,
  "jacksonville": 4036,
  "##no": 4037,
  "##ntv": 4038,
  "age": 4039,
  "dear": 4040,
  "sek": 4041,
  "charitable": 4042,
  "luther": 4043,
  "sicap": 4044,
  "46": 4045,
  "##ridge": 4046,
  "##ipp": 4047,
  "arca": 4048,
  "chip": 4049,
  "certific": 4050,
  "controlling": 4051,
  "func": 4052,
  "soci": 4053,
  "tag": 4054,
  "##leg": 4055,
  "sha": 4056,
  "distributes": 4057,
  "imntv": 4058,
  "domini": 4059,
  "honeywell": 4060,
  "501": 4061,
  "dates": 4062,
  "##94": 4063,
  "##inghua": 4064,
  "##etric": 4065,
  "hold": 4066,
  "modification": 4067,
  "experienc": 4068,
  "sutro": 4069,
  "opportunities": 4070,
  "tsinghua": 4071,
  "dial": 4072,
  "fix": 4073,
  "mit": 4074,
  "##dm": 4075,
  "##mos": 4076,
  "isa": 4077,
  "##shire": 4078,
  "chipmos": 4079,
  "experienced": 4080,
  "dialog": 4081,
  "curo": 4082,
  "ku": 4083,
  "rd": 4084,
  "##yx": 4085,
  "links": 4086,
  "##agenyx": 4087,
  "ultragenyx": 4088,
  "axi": 4089,
  "fe": 4090,
  "mind": 4091,
  "##ciences": 4092,
  "##ometric": 4093,
  "130": 4094,
  "repair": 4095,
  "mov": 4096,
  "contains": 4097,
  "waiver": 4098,
  "radio": 4099,
  "axiometric": 4100,
  "occ": 4101,
  "##kel": 4102,
  "concep": 4103,
  "camb": 4104,
  "chines": 4105,
  "mex": 4106,
  "payable": 4107,
  "solicitation": 4108,
  "chinese": 4109,
  "9th": 4110,
  "dres": 4111,
  "hors": 4112,
  "##36": 4113,
  "##elis": 4114,
  "ono": 4115,
  "19044": 4116,
  "principles": 4117,
  "moelis": 4118,
  "institution": 4119,
  "dresher": 4120,
  "horsham": 4121,
  "matter": 4122,
  "ranch": 4123,
  "##arily": 4124,
  "disco": 4125,
  "recre": 4126,
  "calend": 4127,
  "##xxxxxxxx": 4128,
  "philips": 4129,
  "calendar": 4130,
  "##eco": 4131,
  "residential": 4132,
  "biom": 4133,
  "hofv": 4134,
  "adjust": 4135,
  "bor": 4136,
  "##orth": 4137,
  "##ilton": 4138,
  "americas": 4139,
  "legally": 4140,
  "create": 4141,
  "advant": 4142,
  "bon": 4143,
  "sr": 4144,
  "test": 4145,
  "wgt": 4146,
  "##sl": 4147,
  "##sec": 4148,
  "##dms": 4149,
  "##worth": 4150,
  "level": 4151,
  "supers": 4152,
  "##lined": 4153,
  "8501": 4154,
  "hou": 4155,
  "jv": 4156,
  "##has": 4157,
  "reyn": 4158,
  "boston": 4159,
  "reynolds": 4160,
  "meth": 4161,
  "##tath": 4162,
  "##idu": 4163,
  "##oli": 4164,
  "deltath": 4165,
  "insur": 4166,
  "said": 4167,
  "miaoli": 4168,
  "baidu": 4169,
  "insured": 4170,
  "deltathree": 4171,
  "pagem": 4172,
  "vip": 4173,
  "##bf": 4174,
  "##64": 4175,
  "microsoft": 4176,
  "supplies": 4177,
  "potential": 4178,
  "pagemaster": 4179,
  "eti": 4180,
  "fn": 4181,
  "##oform": 4182,
  "##928": 4183,
  "##ently": 4184,
  "active": 4185,
  "neoform": 4186,
  "phone": 4187,
  "works": 4188,
  "forecasts": 4189,
  "merchandise": 4190,
  "physician": 4191,
  "neoforma": 4192,
  "fang": 4193,
  "mph": 4194,
  "shbv": 4195,
  "pey": 4196,
  "instrument": 4197,
  "mphase": 4198,
  "clu": 4199,
  "##ship": 4200,
  "##kt": 4201,
  "ivillage": 4202,
  "athlet": 4203,
  "lucent": 4204,
  "c21": 4205,
  "businesses": 4206,
  "northern": 4207,
  "outlined": 4208,
  "single": 4209,
  "conducted": 4210,
  "exploration": 4211,
  "sab": 4212,
  "effici": 4213,
  "##omm": 4214,
  "caus": 4215,
  "##urement": 4216,
  "sabco": 4217,
  "bab": 4218,
  "cns": 4219,
  "fen": 4220,
  "press": 4221,
  "incons": 4222,
  "##standing": 4223,
  "config": 4224,
  "impl": 4225,
  "delivered": 4226,
  "galen": 4227,
  "##withstanding": 4228,
  "lightbridge": 4229,
  "band": 4230,
  "transfers": 4231,
  "notwithstanding": 4232,
  "remed": 4233,
  "build": 4234,
  "micoa": 4235,
  "policies": 4236,
  "men": 4237,
  "##pc": 4238,
  "books": 4239,
  "##ext": 4240,
  "filings": 4241,
  "##gous": 4242,
  "energous": 4243,
  "fenyi": 4244,
  "##ool": 4245,
  "##iu": 4246,
  "##51": 4247,
  "##pop": 4248,
  "##vity": 4249,
  "context": 4250,
  "##ticomm": 4251,
  "school": 4252,
  "##casting": 4253,
  "lucid": 4254,
  "schoolpop": 4255,
  "fusion": 4256,
  "grow": 4257,
  "total": 4258,
  "##izing": 4259,
  "charter": 4260,
  "hswi": 4261,
  "advance": 4262,
  "possesses": 4263,
  "dexcel": 4264,
  "kore": 4265,
  "##bad": 4266,
  "fort": 4267,
  "##ays": 4268,
  "carls": 4269,
  "charity": 4270,
  "removal": 4271,
  "carlsbad": 4272,
  "47": 4273,
  "##yville": 4274,
  "##itan": 4275,
  "stam": 4276,
  "amends": 4277,
  "hous": 4278,
  "alam": 4279,
  "9460": 4280,
  "##anning": 4281,
  "communication": 4282,
  "tunes": 4283,
  "emeryville": 4284,
  "pivx": 4285,
  "94608": 4286,
  "##edicor": 4287,
  "##ato": 4288,
  "imedicor": 4289,
  "papa": 4290,
  "fam": 4291,
  "ps": 4292,
  "vod": 4293,
  "develops": 4294,
  "abs": 4295,
  "centives": 4296,
  "post": 4297,
  "##ont": 4298,
  "##ollo": 4299,
  "##gre": 4300,
  "##ved": 4301,
  "belie": 4302,
  "31st": 4303,
  "##ledge": 4304,
  "apollo": 4305,
  "miscell": 4306,
  "cw": 4307,
  "cc": 4308,
  "vict": 4309,
  "##alia": 4310,
  "aggre": 4311,
  "##olution": 4312,
  "##ellas": 4313,
  "marine": 4314,
  "usd": 4315,
  "copyr": 4316,
  "toront": 4317,
  "opportunity": 4318,
  "astellas": 4319,
  "ceo": 4320,
  "cw25": 4321,
  "toronto": 4322,
  "cs": 4323,
  "##xing": 4324,
  "theglobe": 4325,
  "##inger": 4326,
  "allo": 4327,
  "190": 4328,
  "neg": 4329,
  "france": 4330,
  "working": 4331,
  "contracting": 4332,
  "depositor": 4333,
  "biotech": 4334,
  "discre": 4335,
  "qiwi": 4336,
  "cut": 4337,
  "lifeway": 4338,
  "enh": 4339,
  "shipping": 4340,
  "1500": 4341,
  "methods": 4342,
  "dou": 4343,
  "fann": 4344,
  "jag": 4345,
  "lec": 4346,
  "pages": 4347,
  "sel": 4348,
  "##lanche": 4349,
  "##59": 4350,
  "##trasse": 4351,
  "serve": 4352,
  "19th": 4353,
  "transmit": 4354,
  "15th": 4355,
  "stry": 4356,
  "engaging": 4357,
  "subscrib": 4358,
  "kitov": 4359,
  "richmond": 4360,
  "fannin": 4361,
  "jagu": 4362,
  "leclanche": 4363,
  "##bio": 4364,
  "##revoc": 4365,
  "plans": 4366,
  "##izz": 4367,
  "##izes": 4368,
  "community": 4369,
  "courier": 4370,
  "irrevoc": 4371,
  "earlier": 4372,
  "agreemen": 4373,
  "gateway": 4374,
  "atlanta": 4375,
  "rapidly": 4376,
  "6th": 4377,
  "alu": 4378,
  "puro": 4379,
  "##lator": 4380,
  "##mni": 4381,
  "##ogn": 4382,
  "##sui": 4383,
  "recogn": 4384,
  "description": 4385,
  "manufactures": 4386,
  "along": 4387,
  "alumni": 4388,
  "purolator": 4389,
  "sor": 4390,
  "##rich": 4391,
  "##ording": 4392,
  "##eliver": 4393,
  "1200": 4394,
  "##shan": 4395,
  "lessor": 4396,
  "patient": 4397,
  "mb": 4398,
  "mp": 4399,
  "##37": 4400,
  "she": 4401,
  "sou": 4402,
  "prep": 4403,
  "##anea": 4404,
  "understand": 4405,
  "aggregate": 4406,
  "alloys": 4407,
  "cutanea": 4408,
  "ben": 4409,
  "cin": 4410,
  "##kansas": 4411,
  "arkansas": 4412,
  "spark": 4413,
  "spok": 4414,
  "promotions": 4415,
  "arrangements": 4416,
  "beginning": 4417,
  "sorrent": 4418,
  "sparkling": 4419,
  "fm": 4420,
  "##ef": 4421,
  "##ny": 4422,
  "anim": 4423,
  "21st": 4424,
  "carry": 4425,
  "##703": 4426,
  "##ync": 4427,
  "fazync": 4428,
  "##bow": 4429,
  "theat": 4430,
  "##elink": 4431,
  "##ellation": 4432,
  "food": 4433,
  "bldg": 4434,
  "edge": 4435,
  "oxbow": 4436,
  "hds": 4437,
  "##kin": 4438,
  "##uelink": 4439,
  "intent": 4440,
  "##igroup": 4441,
  "truelink": 4442,
  "unigroup": 4443,
  "ability": 4444,
  "paul": 4445,
  "golfer": 4446,
  "farids": 4447,
  "vertex": 4448,
  "v5": 4449,
  "waste": 4450,
  "greater": 4451,
  "samples": 4452,
  "packaging": 4453,
  "restrictions": 4454,
  "2th": 4455,
  "range": 4456,
  "##yd": 4457,
  "##bor": 4458,
  "##bank": 4459,
  "##mington": 4460,
  "##rec": 4461,
  "##emart": 4462,
  "##pper": 4463,
  "ceres": 4464,
  "2themart": 4465,
  "alc": 4466,
  "##burg": 4467,
  "##ones": 4468,
  "consents": 4469,
  "##achem": 4470,
  "invol": 4471,
  "customizations": 4472,
  "abg": 4473,
  "designs": 4474,
  "acquired": 4475,
  "cremer": 4476,
  "amounts": 4477,
  "references": 4478,
  "inspection": 4479,
  "alco": 4480,
  "him": 4481,
  "intuit": 4482,
  "according": 4483,
  "strat": 4484,
  "valley": 4485,
  "publicity": 4486,
  "emp": 4487,
  "delivering": 4488,
  "acknowledges": 4489,
  "protocol": 4490,
  "gsms": 4491,
  "##urrency": 4492,
  "tools": 4493,
  "cp": 4494,
  "garman": 4495,
  "##era": 4496,
  "##uss": 4497,
  "logis": 4498,
  "supplemented": 4499,
  "##itr": 4500,
  "bras": 4501,
  "oxford": 4502,
  "67": 4503,
  "boc": 4504,
  "daz": 4505,
  "rat": 4506,
  "##tanding": 4507,
  "##zle": 4508,
  "110": 4509,
  "banner": 4510,
  "english": 4511,
  "outstanding": 4512,
  "gross": 4513,
  "louis": 4514,
  "beyond": 4515,
  "boca": 4516,
  "dazzle": 4517,
  "raton": 4518,
  "xac": 4519,
  "##entive": 4520,
  "##inary": 4521,
  "incentive": 4522,
  "acquir": 4523,
  "latin": 4524,
  "berkel": 4525,
  "hemp": 4526,
  "xacct": 4527,
  "berkeley": 4528,
  "ea": 4529,
  "##isui": 4530,
  "cove": 4531,
  "##ild": 4532,
  "##igen": 4533,
  "extension": 4534,
  "sekisui": 4535,
  "evid": 4536,
  "mbe": 4537,
  "##iber": 4538,
  "fruit": 4539,
  "structure": 4540,
  "impr": 4541,
  "portfol": 4542,
  "photronics": 4543,
  "facilit": 4544,
  "recognized": 4545,
  "##29": 4546,
  "##uctions": 4547,
  "condition": 4548,
  "orderly": 4549,
  "underwriter": 4550,
  "meetings": 4551,
  "biotechnology": 4552,
  "dub": 4553,
  "duration": 4554,
  "msci": 4555,
  "##gp": 4556,
  "stud": 4557,
  "forest": 4558,
  "##108": 4559,
  "electronics": 4560,
  "reports": 4561,
  "undertak": 4562,
  "discretion": 4563,
  "##plic": 4564,
  "##elph": 4565,
  "##adelph": 4566,
  "##imis": 4567,
  "22nd": 4568,
  "duplic": 4569,
  "ibio": 4570,
  "philadelph": 4571,
  "imprimis": 4572,
  "philadelphia": 4573,
  "los": 4574,
  "##oftware": 4575,
  "##ica": 4576,
  "whereof": 4577,
  "##osition": 4578,
  "median": 4579,
  "##lesoftware": 4580,
  "professionals": 4581,
  "implied": 4582,
  "seattlesoftware": 4583,
  "angeles": 4584,
  "stryker": 4585,
  "seattlesoftwarede": 4586,
  "mk": 4587,
  "nak": 4588,
  "stars": 4589,
  "##life": 4590,
  "news": 4591,
  "motion": 4592,
  "generally": 4593,
  "execute": 4594,
  "intended": 4595,
  "seattle": 4596,
  "mobility": 4597,
  "medianet": 4598,
  "mkos": 4599,
  "naked": 4600,
  "glu": 4601,
  "han": 4602,
  "##kill": 4603,
  "13th": 4604,
  "designing": 4605,
  "guarantors": 4606,
  "800": 4607,
  "letter": 4608,
  "wee": 4609,
  "##ze": 4610,
  "##hi": 4611,
  "##uting": 4612,
  "unre": 4613,
  "telekom": 4614,
  "##gtv": 4615,
  "convergtv": 4616,
  "silver": 4617,
  "associate": 4618,
  "participate": 4619,
  "snap": 4620,
  "bet": 4621,
  "rue": 4622,
  "sier": 4623,
  "incident": 4624,
  "##cher": 4625,
  "##lee": 4626,
  "adolph": 4627,
  "1520": 4628,
  "denmark": 4629,
  "fischer": 4630,
  "club": 4631,
  "adolphe": 4632,
  "eb": 4633,
  "xc": 4634,
  "##chain": 4635,
  "##osciences": 4636,
  "biosciences": 4637,
  "performing": 4638,
  "playa": 4639,
  "received": 4640,
  "blockchain": 4641,
  "##chester": 4642,
  "asterisk": 4643,
  "rghi": 4644,
  "gar": 4645,
  "##ett": 4646,
  "##empt": 4647,
  "sponsored": 4648,
  "17th": 4649,
  "edt": 4650,
  "conformis": 4651,
  "tribute": 4652,
  "substantially": 4653,
  "guidance": 4654,
  "horst": 4655,
  "inconsistent": 4656,
  "incidental": 4657,
  "bvi": 4658,
  "##bour": 4659,
  "##john": 4660,
  "theis": 4661,
  "shps": 4662,
  "trial": 4663,
  "##verage": 4664,
  "strict": 4665,
  "upjohn": 4666,
  "consultants": 4667,
  "salesforce": 4668,
  "photograph": 4669,
  "lutherans": 4670,
  "implement": 4671,
  "theismann": 4672,
  "71": 4673,
  "##ila": 4674,
  "planning": 4675,
  "##redacted": 4676,
  "unredacted": 4677,
  "signatures": 4678,
  "3400": 4679,
  "beneficial": 4680,
  "percentage": 4681,
  "exercise": 4682,
  "395": 4683,
  "78": 4684,
  "austr": 4685,
  "ds": 4686,
  "##ew": 4687,
  "##roc": 4688,
  "plus": 4689,
  "##immune": 4690,
  "##head": 4691,
  "glam": 4692,
  "instructions": 4693,
  "3957": 4694,
  "link": 4695,
  "anix": 4696,
  "stw": 4697,
  "stores": 4698,
  "##amin": 4699,
  "locations": 4700,
  "##pri": 4701,
  "most": 4702,
  "engineering": 4703,
  "australia": 4704,
  "anixa": 4705,
  "jr": 4706,
  "##vs": 4707,
  "##erock": 4708,
  "securian": 4709,
  "permit": 4710,
  "appoints": 4711,
  "cards": 4712,
  "voice": 4713,
  "bluerock": 4714,
  "##rised": 4715,
  "magenta": 4716,
  "biomass": 4717,
  "jrvs": 4718,
  "intric": 4719,
  "##unch": 4720,
  "depart": 4721,
  "howard": 4722,
  "void": 4723,
  "japanese": 4724,
  "inventory": 4725,
  "intricon": 4726,
  "ntc": 4727,
  "##hof": 4728,
  "##erx": 4729,
  "##isph": 4730,
  "ingram": 4731,
  "202": 4732,
  "12g": 4733,
  "systemes": 4734,
  "mining": 4735,
  "boxing": 4736,
  "pfhof": 4737,
  "hemisph": 4738,
  "hemispherx": 4739,
  "891": 4740,
  "cd": 4741,
  "dc": 4742,
  "pb": 4743,
  "tv": 4744,
  "##ped": 4745,
  "comprised": 4746,
  "deep": 4747,
  "rob": 4748,
  "route": 4749,
  "publications": 4750,
  "60606": 4751,
  "proposed": 4752,
  "ferrer": 4753,
  "spinrec": 4754,
  "spinrecords": 4755,
  "aimmune": 4756,
  "ra": 4757,
  "tac": 4758,
  "inkt": 4759,
  "##omi": 4760,
  "reproduce": 4761,
  "##ancun": 4762,
  "offerings": 4763,
  "enfor": 4764,
  "items": 4765,
  "##links": 4766,
  "zhonghong": 4767,
  "competitor": 4768,
  "inktomi": 4769,
  "cric": 4770,
  "pore": 4771,
  "udc": 4772,
  "##hworth": 4773,
  "ashworth": 4774,
  "##ffmann": 4775,
  "cerus": 4776,
  "hoffmann": 4777,
  "ncb": 4778,
  "johns": 4779,
  "device": 4780,
  "miscellaneous": 4781,
  "porex": 4782,
  "gard": 4783,
  "je": 4784,
  "sd": 4785,
  "inters": 4786,
  "lending": 4787,
  "303": 4788,
  "direc": 4789,
  "##house": 4790,
  "ota": 4791,
  "banners": 4792,
  "##raham": 4793,
  "999": 4794,
  "established": 4795,
  "intending": 4796,
  "v6b": 4797,
  "quicklinks": 4798,
  "navigate": 4799,
  "southern": 4800,
  "tactical": 4801,
  "econ": 4802,
  "james": 4803,
  "kath": 4804,
  "ntl": 4805,
  "##ients": 4806,
  "##mal": 4807,
  "consistent": 4808,
  "distributing": 4809,
  "##amex": 4810,
  "17t": 4811,
  "identification": 4812,
  "##407": 4813,
  "##zhou": 4814,
  "places": 4815,
  "dynamex": 4816,
  "procurement": 4817,
  "ebix": 4818,
  "economic": 4819,
  "kathy": 4820,
  "eton": 4821,
  "lit": 4822,
  "wcc": 4823,
  "yok": 4824,
  "##adian": 4825,
  "##uled": 4826,
  "spring": 4827,
  "ventur": 4828,
  "regular": 4829,
  "canadian": 4830,
  "firm": 4831,
  "##neam": 4832,
  "broadcasting": 4833,
  "proposes": 4834,
  "yokneam": 4835,
  "hel": 4836,
  "zip": 4837,
  "##uxing": 4838,
  "##asury": 4839,
  "print": 4840,
  "plas": 4841,
  "treasury": 4842,
  "scheduled": 4843,
  "impact": 4844,
  "##inole": 4845,
  "release": 4846,
  "europe": 4847,
  "seminole": 4848,
  "practice": 4849,
  "irrevocable": 4850,
  "##log": 4851,
  "##fo": 4852,
  "compete": 4853,
  "1010": 4854,
  "##008": 4855,
  "seven": 4856,
  "modules": 4857,
  "doing": 4858,
  "infring": 4859,
  "740": 4860,
  "jsc": 4861,
  "tong": 4862,
  "##elves": 4863,
  "resign": 4864,
  "transmission": 4865,
  "drs": 4866,
  "units": 4867,
  "scre": 4868,
  "premium": 4869,
  "signing": 4870,
  "##951": 4871,
  "names": 4872,
  "58951": 4873,
  "quicken": 4874,
  "billing": 4875,
  "4f": 4876,
  "dss": 4877,
  "mf": 4878,
  "export": 4879,
  "suntr": 4880,
  "newly": 4881,
  "incorporation": 4882,
  "logan": 4883,
  "merchants": 4884,
  "litt": 4885,
  "suntron": 4886,
  "tur": 4887,
  "thems": 4888,
  "cofs": 4889,
  "##ico": 4890,
  "allow": 4891,
  "collater": 4892,
  "applied": 4893,
  "officers": 4894,
  "onto": 4895,
  "integra": 4896,
  "segment": 4897,
  "believe": 4898,
  "themselves": 4899,
  "##wei": 4900,
  "terr": 4901,
  "charg": 4902,
  "retained": 4903,
  "fremont": 4904,
  "interface": 4905,
  "neglig": 4906,
  "1s": 4907,
  "aere": 4908,
  "ced": 4909,
  "fx": 4910,
  "fame": 4911,
  "gian": 4912,
  "hall": 4913,
  "ky": 4914,
  "otc": 4915,
  "##luc": 4916,
  "##iras": 4917,
  "local": 4918,
  "##ourt": 4919,
  "avdu": 4920,
  "linhas": 4921,
  "##ileiras": 4922,
  "burbank": 4923,
  "cambridge": 4924,
  "brasileiras": 4925,
  "turpin": 4926,
  "aereas": 4927,
  "gianluc": 4928,
  "gianluca": 4929,
  "45": 4930,
  "dir": 4931,
  "##ik": 4932,
  "##uos": 4933,
  "##限公": 4934,
  "andre": 4935,
  "explo": 4936,
  "virtuos": 4937,
  "extended": 4938,
  "scotts": 4939,
  "fnw": 4940,
  "configuration": 4941,
  "dirt": 4942,
  "##限公司": 4943,
  "virtuoso": 4944,
  "ct": 4945,
  "darm": 4946,
  "fitness": 4947,
  "kga": 4948,
  "lk": 4949,
  "##iang": 4950,
  "##89": 4951,
  "##edics": 4952,
  "##chem": 4953,
  "##thop": 4954,
  "orthop": 4955,
  "##adt": 4956,
  "##stadt": 4957,
  "arch": 4958,
  "##ights": 4959,
  "sef": 4960,
  "frank": 4961,
  "1995": 4962,
  "2100": 4963,
  "label": 4964,
  "ontochem": 4965,
  "exploit": 4966,
  "darmstadt": 4967,
  "kgaa": 4968,
  "lkpl": 4969,
  "ios": 4970,
  "js": 4971,
  "##ward": 4972,
  "##anville": 4973,
  "nomin": 4974,
  "##ending": 4975,
  "granville": 4976,
  "detto": 4977,
  "quantity": 4978,
  "sublicensable": 4979,
  "bizz": 4980,
  "##ingo": 4981,
  "##ghton": 4982,
  "grand": 4983,
  "editing": 4984,
  "houghton": 4985,
  "bizzingo": 4986,
  "llo": 4987,
  "sony": 4988,
  "##aedics": 4989,
  "##yds": 4990,
  "coast": 4991,
  "produce": 4992,
  "fuj": 4993,
  "accessible": 4994,
  "transactions": 4995,
  "milest": 4996,
  "inventions": 4997,
  "continued": 4998,
  "92614": 4999,
  "cedric": 5000,
  "orthopaedics": 5001,
  "lloyds": 5002,
  "sho": 5003,
  "supplied": 5004,
  "operated": 5005,
  "formul": 5006,
  "veter": 5007,
  "srp": 5008,
  "supersed": 5009,
  "ares": 5010,
  "bms": 5011,
  "dall": 5012,
  "##minating": 5013,
  "ending": 5014,
  "portal": 5015,
  "dallas": 5016,
  "##nut": 5017,
  "prote": 5018,
  "##amic": 5019,
  "114": 5020,
  "holcom": 5021,
  "interpretations": 5022,
  "walnut": 5023,
  "77030": 5024,
  "vni": 5025,
  "dynamic": 5026,
  "concepts": 5027,
  "athlete": 5028,
  "holcombe": 5029,
  "cas": 5030,
  "currency": 5031,
  "##ues": 5032,
  "##chell": 5033,
  "anony": 5034,
  "##ogle": 5035,
  "##amble": 5036,
  "recycl": 5037,
  "amr": 5038,
  "preamble": 5039,
  "google": 5040,
  "qualigen": 5041,
  "conclu": 5042,
  "coverage": 5043,
  "percy": 5044,
  "rockdale": 5045,
  "##guard": 5046,
  "mitchell": 5047,
  "negligence": 5048,
  "recycling": 5049,
  "ly": 5050,
  "##500": 5051,
  "treated": 5052,
  "images": 5053,
  "responsibility": 5054,
  "dolphin": 5055,
  "assume": 5056,
  "logistics": 5057,
  "09": 5058,
  "320": 5059,
  "ebert": 5060,
  "money": 5061,
  "##rs": 5062,
  "##134": 5063,
  "##rets": 5064,
  "##inars": 5065,
  "secrets": 5066,
  "fried": 5067,
  "impco": 5068,
  "denver": 5069,
  "singularly": 5070,
  "watchguard": 5071,
  "improvement": 5072,
  "uniform": 5073,
  "societe": 5074,
  "anonyme": 5075,
  "friedrich": 5076,
  "fact": 5077,
  "kent": 5078,
  "##dic": 5079,
  "##orph": 5080,
  "copper": 5081,
  "##ucky": 5082,
  "leases": 5083,
  "310": 5084,
  "completed": 5085,
  "scott": 5086,
  "automobile": 5087,
  "kentucky": 5088,
  "001": 5089,
  "nls": 5090,
  "##ev": 5091,
  "##lake": 5092,
  "##ike": 5093,
  "##inx": 5094,
  "##atement": 5095,
  "##ching": 5096,
  "##ialinx": 5097,
  "manage": 5098,
  "submit": 5099,
  "amorph": 5100,
  "newport": 5101,
  "medialinx": 5102,
  "flotek": 5103,
  "options": 5104,
  "westlake": 5105,
  "manufacturers": 5106,
  "7707": 5107,
  "targ": 5108,
  "phlvic": 5109,
  "president": 5110,
  "amorphous": 5111,
  "925": 5112,
  "body": 5113,
  "ec": 5114,
  "tn": 5115,
  "xxi": 5116,
  "##27": 5117,
  "##eme": 5118,
  "555": 5119,
  "next": 5120,
  "victoria": 5121,
  "##cul": 5122,
  "##acticomm": 5123,
  "##tra": 5124,
  "robo": 5125,
  "calcul": 5126,
  "##phth": 5127,
  "charles": 5128,
  "galacticomm": 5129,
  "furnishing": 5130,
  "jvp": 5131,
  "another": 5132,
  "producer": 5133,
  "resid": 5134,
  "prepar": 5135,
  "cartr": 5136,
  "facts": 5137,
  "##6101": 5138,
  "restatement": 5139,
  "seek": 5140,
  "1a": 5141,
  "aqu": 5142,
  "fel": 5143,
  "##ifer": 5144,
  "reef": 5145,
  "20t": 5146,
  "once": 5147,
  "shel": 5148,
  "manning": 5149,
  "capitan": 5150,
  "holid": 5151,
  "pharming": 5152,
  "knowledge": 5153,
  "derived": 5154,
  "hdi": 5155,
  "advantus": 5156,
  "aquifer": 5157,
  "920": 5158,
  "pte": 5159,
  "##2ship": 5160,
  "##ogord": 5161,
  "great": 5162,
  "power2ship": 5163,
  "alamogord": 5164,
  "alamogordo": 5165,
  "rom": 5166,
  "##ised": 5167,
  "deers": 5168,
  "mead": 5169,
  "flood": 5170,
  "##iety": 5171,
  "sample": 5172,
  "typ": 5173,
  "osney": 5174,
  "infringement": 5175,
  "deerskin": 5176,
  "79": 5177,
  "wint": 5178,
  "##inber": 5179,
  "##astern": 5180,
  "actions": 5181,
  "##omac": 5182,
  "neill": 5183,
  "##goti": 5184,
  "suppor": 5185,
  "like": 5186,
  "##avor": 5187,
  "grinber": 5188,
  "envision": 5189,
  "powers": 5190,
  "##615": 5191,
  "variety": 5192,
  "hydron": 5193,
  "majority": 5194,
  "92121": 5195,
  "sandler": 5196,
  "94105": 5197,
  "grinberg": 5198,
  "621": 5199,
  "888": 5200,
  "93": 5201,
  "cord": 5202,
  "##vion": 5203,
  "##120": 5204,
  "prosp": 5205,
  "20th": 5206,
  "orient": 5207,
  "##ffic": 5208,
  "##ains": 5209,
  "ham": 5210,
  "requires": 5211,
  "leo": 5212,
  "##ouri": 5213,
  "contractual": 5214,
  "3030": 5215,
  "biomed": 5216,
  "grill": 5217,
  "midstream": 5218,
  "making": 5219,
  "pleas": 5220,
  "missouri": 5221,
  "korea": 5222,
  "cw25120": 5223,
  "casino": 5224,
  "798": 5225,
  "##vione": 5226,
  "30308": 5227,
  "cw251207": 5228,
  "l4": 5229,
  "mem": 5230,
  "mell": 5231,
  "ut": 5232,
  "wid": 5233,
  "thc": 5234,
  "##reams": 5235,
  "##els": 5236,
  "parcel": 5237,
  "stored": 5238,
  "negoti": 5239,
  "hovione": 5240,
  "idreams": 5241,
  "traffic": 5242,
  "dublin": 5243,
  "mellon": 5244,
  "utah": 5245,
  "idreamsky": 5246,
  "380": 5247,
  "4th": 5248,
  "civ": 5249,
  "gath": 5250,
  "##fest": 5251,
  "ingel": 5252,
  "##olid": 5253,
  "consolid": 5254,
  "manif": 5255,
  "oaks": 5256,
  "##heim": 5257,
  "viol": 5258,
  "wilmington": 5259,
  "palmer": 5260,
  "uniqu": 5261,
  "floodfest": 5262,
  "ingelheim": 5263,
  "##los": 5264,
  "distributors": 5265,
  "arena": 5266,
  "lender": 5267,
  "connected": 5268,
  "##ova": 5269,
  "watley": 5270,
  "discount": 5271,
  "fmm": 5272,
  "sierra": 5273,
  "gathering": 5274,
  "atr": 5275,
  "clear": 5276,
  "vne": 5277,
  "120": 5278,
  "lea": 5279,
  "preced": 5280,
  "backha": 5281,
  "manifest": 5282,
  "backhaul": 5283,
  "hund": 5284,
  "ren": 5285,
  "##oth": 5286,
  "##55": 5287,
  "##hensive": 5288,
  "##onse": 5289,
  "##rehensive": 5290,
  "comprehensive": 5291,
  "whol": 5292,
  "##aching": 5293,
  "pertain": 5294,
  "uses": 5295,
  "response": 5296,
  "18th": 5297,
  "copies": 5298,
  "financing": 5299,
  "dov": 5300,
  "hsns": 5301,
  "updates": 5302,
  "unreason": 5303,
  "hundred": 5304,
  "wholes": 5305,
  "##ayment": 5306,
  "licence": 5307,
  "productions": 5308,
  "meet": 5309,
  "commercially": 5310,
  "initials": 5311,
  "98004": 5312,
  "earth": 5313,
  "wholesale": 5314,
  "ele": 5315,
  "tiger": 5316,
  "yish": 5317,
  "##icip": 5318,
  "10001": 5319,
  "season": 5320,
  "contractors": 5321,
  "notif": 5322,
  "annex": 5323,
  "10011": 5324,
  "fuelcell": 5325,
  "yisheng": 5326,
  "64": 5327,
  "ster": 5328,
  "tph": 5329,
  "##mg": 5330,
  "##301": 5331,
  "adop": 5332,
  "neuro": 5333,
  "alia": 5334,
  "acceptable": 5335,
  "madden": 5336,
  "diversified": 5337,
  "laborator": 5338,
  "flex": 5339,
  "resignation": 5340,
  "sterling": 5341,
  "neurobo": 5342,
  "n3": 5343,
  "side": 5344,
  "tai": 5345,
  "##eure": 5346,
  "##long": 5347,
  "##dos": 5348,
  "##58": 5349,
  "##held": 5350,
  "todos": 5351,
  "prolong": 5352,
  "marv": 5353,
  "martin": 5354,
  "note": 5355,
  "smart": 5356,
  "majeure": 5357,
  "##paid": 5358,
  "seeks": 5359,
  "taiwan": 5360,
  "jo": 5361,
  "lmg": 5362,
  "tak": 5363,
  "win": 5364,
  "##661": 5365,
  "##thing": 5366,
  "branch": 5367,
  "gri": 5368,
  "conflict": 5369,
  "adopted": 5370,
  "69": 5371,
  "bachem": 5372,
  "dund": 5373,
  "foc": 5374,
  "##uk": 5375,
  "##orial": 5376,
  "inj": 5377,
  "2028": 5378,
  "deplo": 5379,
  "regional": 5380,
  "rochester": 5381,
  "##ishi": 5382,
  "nvos": 5383,
  "jaguars": 5384,
  "focus": 5385,
  "913": 5386,
  "ah": 5387,
  "feng": 5388,
  "fii": 5389,
  "nash": 5390,
  "otk": 5391,
  "##riti": 5392,
  "##zan": 5393,
  "##05": 5394,
  "coke": 5395,
  "acts": 5396,
  "##umul": 5397,
  "##romic": 5398,
  "2835": 5399,
  "afi": 5400,
  "refr": 5401,
  "hardwood": 5402,
  "ppg": 5403,
  "tarzan": 5404,
  "kiromic": 5405,
  "78741": 5406,
  "pjmf": 5407,
  "holdco": 5408,
  "ahf": 5409,
  "fiioc": 5410,
  "nashville": 5411,
  "otkriti": 5412,
  "otkritie": 5413,
  "ven": 5414,
  "proceed": 5415,
  "sound": 5416,
  "cerence": 5417,
  "surgery": 5418,
  "component": 5419,
  "caused": 5420,
  "54": 5421,
  "dail": 5422,
  "iger": 5423,
  "path": 5424,
  "wl": 5425,
  "##23": 5426,
  "##vale": 5427,
  "##ections": 5428,
  "chall": 5429,
  "outsource": 5430,
  "basic": 5431,
  "enab": 5432,
  "signatory": 5433,
  "079": 5434,
  "continuing": 5435,
  "sunny": 5436,
  "million": 5437,
  "stratford": 5438,
  "unreasonably": 5439,
  "daily": 5440,
  "wlib": 5441,
  "sunnyvale": 5442,
  "game": 5443,
  "skill": 5444,
  "##2k": 5445,
  "##xim": 5446,
  "secret": 5447,
  "destin": 5448,
  "buy": 5449,
  "profits": 5450,
  "refund": 5451,
  "educational": 5452,
  "portfolio": 5453,
  "580": 5454,
  "kci": 5455,
  "affiliated": 5456,
  "9404": 5457,
  "modified": 5458,
  "voip": 5459,
  "ox2": 5460,
  "nanop": 5461,
  "ppd": 5462,
  "blood": 5463,
  "supporting": 5464,
  "5802": 5465,
  "94043": 5466,
  "brett": 5467,
  "cumul": 5468,
  "low": 5469,
  "##601": 5470,
  "##advis": 5471,
  "connect": 5472,
  "cooperate": 5473,
  "damage": 5474,
  "confirmation": 5475,
  "cri": 5476,
  "equality": 5477,
  "presently": 5478,
  "approxim": 5479,
  "needs": 5480,
  "combin": 5481,
  "diagnostic": 5482,
  "enforc": 5483,
  "cumulative": 5484,
  "aven": 5485,
  "cat": 5486,
  "dk": 5487,
  "ygp": 5488,
  "##ws": 5489,
  "island": 5490,
  "rey": 5491,
  "withheld": 5492,
  "##type": 5493,
  "##005": 5494,
  "avenida": 5495,
  "fmi": 5496,
  "niger": 5497,
  "##eal": 5498,
  "##75": 5499,
  "##agic": 5500,
  "subadvis": 5501,
  "appare": 5502,
  "transmitted": 5503,
  "holds": 5504,
  "conduct": 5505,
  "midd": 5506,
  "pertaining": 5507,
  "nigeria": 5508,
  "bc": 5509,
  "cnet": 5510,
  "kind": 5511,
  "##otype": 5512,
  "##ergy": 5513,
  "##energy": 5514,
  "##ema": 5515,
  "##imagic": 5516,
  "3121": 5517,
  "notific": 5518,
  "activity": 5519,
  "peoria": 5520,
  "prototype": 5521,
  "mobimagic": 5522,
  "bridgewater": 5523,
  "plastic": 5524,
  "collateral": 5525,
  "destinations": 5526,
  "rise": 5527,
  "##gory": 5528,
  "##291": 5529,
  "colog": 5530,
  "cheng": 5531,
  "invention": 5532,
  "videos": 5533,
  "constitutes": 5534,
  "tsim": 5535,
  "appropri": 5536,
  "cinema": 5537,
  "##riel": 5538,
  "##deliver": 5539,
  "##itsu": 5540,
  "##ety": 5541,
  "secure": 5542,
  "loco": 5543,
  "pollo": 5544,
  "continuous": 5545,
  "constellation": 5546,
  "functions": 5547,
  "sdbf": 5548,
  "fujitsu": 5549,
  "enforcement": 5550,
  "##delivery": 5551,
  "batter": 5552,
  "nas": 5553,
  "wall": 5554,
  "##ality": 5555,
  "##elve": 5556,
  "requesting": 5557,
  "custody": 5558,
  "indiana": 5559,
  "individuals": 5560,
  "construct": 5561,
  "twelve": 5562,
  "virtue": 5563,
  "furnished": 5564,
  "interfac": 5565,
  "datab": 5566,
  "speak": 5567,
  "appropriate": 5568,
  "325": 5569,
  "hal": 5570,
  "##sen": 5571,
  "##enge": 5572,
  "prosec": 5573,
  "iso": 5574,
  "producing": 5575,
  "mans": 5576,
  "resale": 5577,
  "permission": 5578,
  "prepaid": 5579,
  "trustees": 5580,
  "##ersonline": 5581,
  "leadersonline": 5582,
  "accordingly": 5583,
  "challenge": 5584,
  "critical": 5585,
  "apparel": 5586,
  "bdc": 5587,
  "cib": 5588,
  "criter": 5589,
  "fro": 5590,
  "hale": 5591,
  "nipp": 5592,
  "words": 5593,
  "##ators": 5594,
  "##eck": 5595,
  "shin": 5596,
  "##mead": 5597,
  "##elli": 5598,
  "plant": 5599,
  "chain": 5600,
  "avions": 5601,
  "pcomed": 5602,
  "giving": 5603,
  "##unction": 5604,
  "institutions": 5605,
  "immuno": 5606,
  "derivative": 5607,
  "##ounds": 5608,
  "medicine": 5609,
  "woodmead": 5610,
  "graphic": 5611,
  "glamis": 5612,
  "secretary": 5613,
  "cibelli": 5614,
  "criteria": 5615,
  "haley": 5616,
  "nippon": 5617,
  "ajr": 5618,
  "##gon": 5619,
  "##b5": 5620,
  "##kers": 5621,
  "coher": 5622,
  "shore": 5623,
  "limits": 5624,
  "##ifications": 5625,
  "advised": 5626,
  "warrants": 5627,
  "modality": 5628,
  "ordering": 5629,
  "outpo": 5630,
  "linac": 5631,
  "cyberian": 5632,
  "conflicts": 5633,
  "##bourne": 5634,
  "taken": 5635,
  "database": 5636,
  "coherus": 5637,
  "outpost": 5638,
  "gaming": 5639,
  "contempl": 5640,
  "##iao": 5641,
  "incorporates": 5642,
  "brokers": 5643,
  "recorded": 5644,
  "foreign": 5645,
  "5101": 5646,
  "638": 5647,
  "wli": 5648,
  "wpt": 5649,
  "##wid": 5650,
  "##48": 5651,
  "##utr": 5652,
  "drill": 5653,
  "lost": 5654,
  "maintaining": 5655,
  "steph": 5656,
  "##248": 5657,
  "bandwid": 5658,
  "bandwidth": 5659,
  "632": 5660,
  "76": 5661,
  "pun": 5662,
  "sens": 5663,
  "##ster": 5664,
  "##rid": 5665,
  "##xat": 5666,
  "##ndid": 5667,
  "server": 5668,
  "argo": 5669,
  "candid": 5670,
  "moxat": 5671,
  "trustee": 5672,
  "substit": 5673,
  "voting": 5674,
  "60045": 5675,
  "vii": 5676,
  "95134": 5677,
  "necessity": 5678,
  "antares": 5679,
  "esports": 5680,
  "enhanc": 5681,
  "punitive": 5682,
  "moxatag": 5683,
  "dass": 5684,
  "fdms": 5685,
  "##sb": 5686,
  "##yu": 5687,
  "##junction": 5688,
  "##entures": 5689,
  "##ala": 5690,
  "conjunction": 5691,
  "resolution": 5692,
  "communities": 5693,
  "ipayment": 5694,
  "metlife": 5695,
  "debentures": 5696,
  "dassault": 5697,
  "fsb": 5698,
  "mbr": 5699,
  "##mar": 5700,
  "##aring": 5701,
  "##acc": 5702,
  "revision": 5703,
  "shang": 5704,
  "acm": 5705,
  "tranche": 5706,
  "produces": 5707,
  "result": 5708,
  "##velopers": 5709,
  "1111": 5710,
  "contracted": 5711,
  "covering": 5712,
  "beneficially": 5713,
  "combine": 5714,
  "growth": 5715,
  "prepared": 5716,
  "seattlesoftwaredevelopers": 5717,
  "week": 5718,
  "mbrk": 5719,
  "shangd": 5720,
  "did": 5721,
  "give": 5722,
  "thi": 5723,
  "atp": 5724,
  "servers": 5725,
  "resource": 5726,
  "shared": 5727,
  "carb": 5728,
  "commercialize": 5729,
  "stockton": 5730,
  "workfl": 5731,
  "charac": 5732,
  "sixty": 5733,
  "dispute": 5734,
  "evidence": 5735,
  "garden": 5736,
  "contemplated": 5737,
  "workflow": 5738,
  "68": 5739,
  "auct": 5740,
  "kog": 5741,
  "tort": 5742,
  "ware": 5743,
  "##sim": 5744,
  "##yo": 5745,
  "##53": 5746,
  "beverage": 5747,
  "effects": 5748,
  "acro": 5749,
  "distin": 5750,
  "promoting": 5751,
  "rede": 5752,
  "233": 5753,
  "cann": 5754,
  "##ixed": 5755,
  "concurrent": 5756,
  "possibility": 5757,
  "procedure": 5758,
  "family": 5759,
  "alcohol": 5760,
  "direction": 5761,
  "aucta": 5762,
  "kogyo": 5763,
  "301": 5764,
  "##ras": 5765,
  "##tian": 5766,
  "##ren": 5767,
  "##esh": 5768,
  "##acting": 5769,
  "##emable": 5770,
  "redeemable": 5771,
  "bin": 5772,
  "slc": 5773,
  "##kins": 5774,
  "asia": 5775,
  "hamp": 5776,
  "artis": 5777,
  "register": 5778,
  "575": 5779,
  "subscribers": 5780,
  "protein": 5781,
  "cartridge": 5782,
  "slcma": 5783,
  "hampshire": 5784,
  "artists": 5785,
  "cra": 5786,
  "ey": 5787,
  "ek": 5788,
  "hop": 5789,
  "ophth": 5790,
  "pending": 5791,
  "##fly": 5792,
  "##pital": 5793,
  "##76": 5794,
  "##ited": 5795,
  "##itects": 5796,
  "##icks": 5797,
  "sund": 5798,
  "excess": 5799,
  "hospital": 5800,
  "norfol": 5801,
  "periods": 5802,
  "patrick": 5803,
  "launch": 5804,
  "ipass": 5805,
  "prevail": 5806,
  "harris": 5807,
  "##almic": 5808,
  "stremicks": 5809,
  "bluefly": 5810,
  "several": 5811,
  "invoices": 5812,
  "94403": 5813,
  "certified": 5814,
  "garrett": 5815,
  "architects": 5816,
  "ekr": 5817,
  "hopkins": 5818,
  "ophthalmic": 5819,
  "norfolk": 5820,
  "48": 5821,
  "bic": 5822,
  "cases": 5823,
  "held": 5824,
  "hilton": 5825,
  "npc": 5826,
  "agape": 5827,
  "##rol": 5828,
  "convention": 5829,
  "##uted": 5830,
  "settl": 5831,
  "##ordin": 5832,
  "3035": 5833,
  "27th": 5834,
  "twk": 5835,
  "substantial": 5836,
  "covenanter": 5837,
  "copyright": 5838,
  "concluded": 5839,
  "settlement": 5840,
  "70": 5841,
  "jia": 5842,
  "soc": 5843,
  "##ctive": 5844,
  "##here": 5845,
  "##viron": 5846,
  "##1b": 5847,
  "##etx": 5848,
  "stall": 5849,
  "adam": 5850,
  "1820": 5851,
  "environ": 5852,
  "portno": 5853,
  "malin": 5854,
  "##ycletx": 5855,
  "##ewear": 5856,
  "eyewear": 5857,
  "bicycletx": 5858,
  "stallings": 5859,
  "portnoy": 5860,
  "iow": 5861,
  "mat": 5862,
  "tune": 5863,
  "##ron": 5864,
  "##cad": 5865,
  "##ku": 5866,
  "##time": 5867,
  "##alij": 5868,
  "committed": 5869,
  "indicate": 5870,
  "natalij": 5871,
  "##ndered": 5872,
  "##429": 5873,
  "appears": 5874,
  "recreation": 5875,
  "babraham": 5876,
  "photographs": 5877,
  "distinctive": 5878,
  "concurrently": 5879,
  "social": 5880,
  "iowa": 5881,
  "tunevic": 5882,
  "natalija": 5883,
  "bal": 5884,
  "bun": 5885,
  "gso": 5886,
  "kenn": 5887,
  "##inz": 5888,
  "reor": 5889,
  "suites": 5890,
  "203": 5891,
  "##utter": 5892,
  "##achers": 5893,
  "unc": 5894,
  "banco": 5895,
  "herc": 5896,
  "object": 5897,
  "heinz": 5898,
  "2900": 5899,
  "retains": 5900,
  "ireya": 5901,
  "94404": 5902,
  "downloading": 5903,
  "adjustments": 5904,
  "remedies": 5905,
  "empire": 5906,
  "cdq": 5907,
  "help": 5908,
  "bunker": 5909,
  "425": 5910,
  "599": 5911,
  "650": 5912,
  "lakes": 5913,
  "mission": 5914,
  "##usts": 5915,
  "trusts": 5916,
  "##ube": 5917,
  "28th": 5918,
  "256": 5919,
  "highly": 5920,
  "municip": 5921,
  "gsk": 5922,
  "regardless": 5923,
  "cb1": 5924,
  "5992": 5925,
  "icc": 5926,
  "pink": 5927,
  "tube": 5928,
  "vital": 5929,
  "xr": 5930,
  "##sas": 5931,
  "##wij": 5932,
  "##utrition": 5933,
  "##710": 5934,
  "##alwij": 5935,
  "astron": 5936,
  "##usable": 5937,
  "##iden": 5938,
  "orpl": 5939,
  "conve": 5940,
  "leiden": 5941,
  "herb": 5942,
  "elsas": 5943,
  "final": 5944,
  "##kstra": 5945,
  "2313": 5946,
  "centre": 5947,
  "94710": 5948,
  "##shares": 5949,
  "creative": 5950,
  "92008": 5951,
  "bancshares": 5952,
  "installing": 5953,
  "staalwij": 5954,
  "cells": 5955,
  "andrea": 5956,
  "environmental": 5957,
  "astronutrition": 5958,
  "##kstraat": 5959,
  "staalwijkstraat": 5960,
  "jour": 5961,
  "lat": 5962,
  "land": 5963,
  "pga": 5964,
  "rates": 5965,
  "ta": 5966,
  "va": 5967,
  "##47": 5968,
  "##ersburg": 5969,
  "##mited": 5970,
  "sear": 5971,
  "unli": 5972,
  "terminates": 5973,
  "charge": 5974,
  "subcontracting": 5975,
  "petersburg": 5976,
  "underwriting": 5977,
  "occurren": 5978,
  "rancho": 5979,
  "borrow": 5980,
  "jeff": 5981,
  "cordova": 5982,
  "civil": 5983,
  "character": 5984,
  "journ": 5985,
  "unlimited": 5986,
  "780": 5987,
  "lines": 5988,
  "wi": 5989,
  "##6c": 5990,
  "paratek": 5991,
  "##abili": 5992,
  "##awa": 5993,
  "adma": 5994,
  "incorporating": 5995,
  "alleg": 5996,
  "royalties": 5997,
  "076c": 5998,
  "anti": 5999,
  "machine": 6000,
  "package": 6001,
  "travel": 6002,
  "minda": 6003,
  "efficiency": 6004,
  "taip": 6005,
  "bir": 6006,
  "cus": 6007,
  "##eq": 6008,
  "##gress": 6009,
  "##wick": 6010,
  "##cin": 6011,
  "##resp": 6012,
  "##inty": 6013,
  "##quote": 6014,
  "transmissions": 6015,
  "strateg": 6016,
  "##ghes": 6017,
  "sao": 6018,
  "##ways": 6019,
  "issuance": 6020,
  "outl": 6021,
  "pcquote": 6022,
  "bioeq": 6023,
  "milton": 6024,
  "illeg": 6025,
  "installed": 6026,
  "hughes": 6027,
  "constanta": 6028,
  "3753": 6029,
  "graphics": 6030,
  "89169": 6031,
  "oriental": 6032,
  "matth": 6033,
  "municipal": 6034,
  "occurrence": 6035,
  "cusip": 6036,
  "41": 6037,
  "604": 6038,
  "bion": 6039,
  "duty": 6040,
  "eastern": 6041,
  "vers": 6042,
  "##cope": 6043,
  "inners": 6044,
  "chome": 6045,
  "northwest": 6046,
  "legacy": 6047,
  "90067": 6048,
  "3900": 6049,
  "insurances": 6050,
  "residing": 6051,
  "dova": 6052,
  "##utrients": 6053,
  "birch": 6054,
  "bionutrients": 6055,
  "innerscope": 6056,
  "6t": 6057,
  "efs": 6058,
  "every": 6059,
  "hi": 6060,
  "ian": 6061,
  "ken": 6062,
  "lbio": 6063,
  "nr": 6064,
  "overs": 6065,
  "##fan": 6066,
  "##awao": 6067,
  "nominating": 6068,
  "bruns": 6069,
  "boyd": 6070,
  "16th": 6071,
  "##pharm": 6072,
  "##emarks": 6073,
  "270": 6074,
  "recei": 6075,
  "hyd": 6076,
  "israeli": 6077,
  "##span": 6078,
  "airspan": 6079,
  "##clepharm": 6080,
  "recipes": 6081,
  "programmer": 6082,
  "musclepharm": 6083,
  "vending": 6084,
  "benefici": 6085,
  "invoicing": 6086,
  "makawao": 6087,
  "movie": 6088,
  "bannerman": 6089,
  "illegible": 6090,
  "434": 6091,
  "690": 6092,
  "968": 6093,
  "fid": 6094,
  "hg": 6095,
  "jing": 6096,
  "oic": 6097,
  "##ginty": 6098,
  "##zata": 6099,
  "##bitr": 6100,
  "##391": 6101,
  "whe": 6102,
  "beike": 6103,
  "manso": 6104,
  "arbitr": 6105,
  "camp": 6106,
  "15407": 6107,
  "1800": 6108,
  "territories": 6109,
  "paper": 6110,
  "receipts": 6111,
  "55391": 6112,
  "airport": 6113,
  "4324": 6114,
  "77210": 6115,
  "mcginty": 6116,
  "wayzata": 6117,
  "movado": 6118,
  "housemarks": 6119,
  "tonglu": 6120,
  "verso": 6121,
  "jingwei": 6122,
  "oicl": 6123,
  "mansoya": 6124,
  "3l": 6125,
  "paste": 6126,
  "vca": 6127,
  "深圳": 6128,
  "##don": 6129,
  "##orn": 6130,
  "##elity": 6131,
  "##idata": 6132,
  "##veen": 6133,
  "208": 6134,
  "una": 6135,
  "wars": 6136,
  "events": 6137,
  "equidata": 6138,
  "nuveen": 6139,
  "supplements": 6140,
  "freight": 6141,
  "specialty": 6142,
  "ppb": 6143,
  "fidelity": 6144,
  "hgf": 6145,
  "3l2": 6146,
  "pasteur": 6147,
  "didi": 6148,
  "lang": 6149,
  "pv": 6150,
  "rent": 6151,
  "##ntex": 6152,
  "reach": 6153,
  "##sure": 6154,
  "rotin": 6155,
  "14t": 6156,
  "relation": 6157,
  "pays": 6158,
  "304": 6159,
  "altern": 6160,
  "##phant": 6161,
  "authorizes": 6162,
  "penntex": 6163,
  "##iana": 6164,
  "005": 6165,
  "operator5": 6166,
  "refl": 6167,
  "gao": 6168,
  "talk": 6169,
  "propos": 6170,
  "validity": 6171,
  "##949": 6172,
  "louisiana": 6173,
  "elephant": 6174,
  "langu": 6175,
  "rotino": 6176,
  "53": 6177,
  "cult": 6178,
  "kno": 6179,
  "lub": 6180,
  "mrd": 6181,
  "xp": 6182,
  "##ively": 6183,
  "##wp": 6184,
  "207": 6185,
  "10th": 6186,
  "##aya": 6187,
  "attr": 6188,
  "nontr": 6189,
  "##ferable": 6190,
  "##ansferable": 6191,
  "##ampo": 6192,
  "##resspa": 6193,
  "manages": 6194,
  "exclusively": 6195,
  "decl": 6196,
  "ventures": 6197,
  "##ricants": 6198,
  "sucampo": 6199,
  "nvg": 6200,
  "recipe": 6201,
  "restricted": 6202,
  "hd2": 6203,
  "motorways": 6204,
  "flextronics": 6205,
  "culture": 6206,
  "lubricants": 6207,
  "xpresspa": 6208,
  "nontransferable": 6209,
  "cate": 6210,
  "dd": 6211,
  "fif": 6212,
  "hancun": 6213,
  "nol": 6214,
  "sag": 6215,
  "##wich": 6216,
  "##jin": 6217,
  "##有限公司": 6218,
  "106": 6219,
  "enters": 6220,
  "prices": 6221,
  "cho": 6222,
  "##ama": 6223,
  "franchisees": 6224,
  "1730": 6225,
  "##118": 6226,
  "3313": 6227,
  "##zheng": 6228,
  "516": 6229,
  "particularly": 6230,
  "greenwich": 6231,
  "tianjin": 6232,
  "dongying": 6233,
  "seminars": 6234,
  "fangshan": 6235,
  "fangzheng": 6236,
  "understandings": 6237,
  "characterization": 6238,
  "attrib": 6239,
  "hancunhe": 6240,
  "567": 6241,
  "fall": 6242,
  "vay": 6243,
  "##yar": 6244,
  "##ono": 6245,
  "##edge": 6246,
  "coins": 6247,
  "super": 6248,
  "serono": 6249,
  "1462": 6250,
  "manufactured": 6251,
  "indian": 6252,
  "generated": 6253,
  "becom": 6254,
  "##plan": 6255,
  "identify": 6256,
  "healthplan": 6257,
  "accessories": 6258,
  "successive": 6259,
  "408": 6260,
  "777": 6261,
  "volunt": 6262,
  "details": 6263,
  "contribution": 6264,
  "animals": 6265,
  "little": 6266,
  "language": 6267,
  "vayyar": 6268,
  "coinsins": 6269,
  "bat": 6270,
  "dn": 6271,
  "my": 6272,
  "pn": 6273,
  "son": 6274,
  "##eeco": 6275,
  "##fu": 6276,
  "##c2": 6277,
  "##inal": 6278,
  "##esp": 6279,
  "##usa": 6280,
  "intention": 6281,
  "##abot": 6282,
  "##awler": 6283,
  "##otes": 6284,
  "webcr": 6285,
  "southwest": 6286,
  "employeeco": 6287,
  "audio": 6288,
  "##inson": 6289,
  "walabot": 6290,
  "conforming": 6291,
  "circum": 6292,
  "speed": 6293,
  "considered": 6294,
  "involving": 6295,
  "memory": 6296,
  "latest": 6297,
  "dnp": 6298,
  "##fully": 6299,
  "webcrawler": 6300,
  "bocol": 6301,
  "hist": 6302,
  "s2k": 6303,
  "tick": 6304,
  "##fur": 6305,
  "##gl": 6306,
  "##mwp": 6307,
  "##860": 6308,
  "##rees": 6309,
  "##inix": 6310,
  "##igia": 6311,
  "##olta": 6312,
  "##ansion": 6313,
  "chuxing": 6314,
  "##umb": 6315,
  "expand": 6316,
  "expansion": 6317,
  "21860": 6318,
  "traded": 6319,
  "authorities": 6320,
  "2525": 6321,
  "luigia": 6322,
  "##ovolta": 6323,
  "domic": 6324,
  "offline": 6325,
  "dealers": 6326,
  "photovolta": 6327,
  "50mwp": 6328,
  "##conn": 6329,
  "mills": 6330,
  "spokesp": 6331,
  "facilitating": 6332,
  "prosecute": 6333,
  "arbitration": 6334,
  "sonos": 6335,
  "bocola": 6336,
  "photovoltaic": 6337,
  "jiang": 6338,
  "mt": 6339,
  "ole": 6340,
  "##farma": 6341,
  "##xcs": 6342,
  "##itec": 6343,
  "secured": 6344,
  "##iams": 6345,
  "allison": 6346,
  "19t": 6347,
  "phrees": 6348,
  "williams": 6349,
  "streaming": 6350,
  "elects": 6351,
  "denotes": 6352,
  "##cc000": 6353,
  "partnerconn": 6354,
  "7700": 6355,
  "##12001": 6356,
  "manuals": 6357,
  "eurofarma": 6358,
  "##66cc000": 6359,
  "zebra®": 6360,
  "datec": 6361,
  "borne": 6362,
  "psitec": 6363,
  "screen": 6364,
  "jsxcs": 6365,
  "tickets": 6366,
  "jiangsu": 6367,
  "oleo": 6368,
  "phreesia": 6369,
  "partnerconnect": 6370,
  "##1200166cc000": 6371,
  "jsxcs1200166cc000": 6372,
  "eco": 6373,
  "pk": 6374,
  "rio": 6375,
  "tests": 6376,
  "##aa": 6377,
  "##bro": 6378,
  "lien": 6379,
  "##tero": 6380,
  "bring": 6381,
  "mobil": 6382,
  "##reek": 6383,
  "integration": 6384,
  "33928": 6385,
  "pob": 6386,
  "telephony": 6387,
  "estero": 6388,
  "cpm": 6389,
  "approximately": 6390,
  "falls": 6391,
  "pkwy": 6392,
  "aware": 6393,
  "creek": 6394,
  "i3": 6395,
  "##wing": 6396,
  "##kee": 6397,
  "##uclear": 6398,
  "haum": 6399,
  "areas": 6400,
  "128": 6401,
  "brands": 6402,
  "corresp": 6403,
  "integral": 6404,
  "connectivity": 6405,
  "harbor": 6406,
  "laboratory": 6407,
  "placement": 6408,
  "quantities": 6409,
  "mexican": 6410,
  "mexico": 6411,
  "recreational": 6412,
  "implementation": 6413,
  "circumst": 6414,
  "haumann": 6415,
  "correspond": 6416,
  "fres": 6417,
  "pere": 6418,
  "wpp": 6419,
  "ʺpar": 6420,
  "##auty": 6421,
  "##wall": 6422,
  "##2energy": 6423,
  "beauty": 6424,
  "##ocl": 6425,
  "plic": 6426,
  "cafe": 6427,
  "neon": 6428,
  "sevent": 6429,
  "accel": 6430,
  "##issau": 6431,
  "respecti": 6432,
  "##grine": 6433,
  "detailed": 6434,
  "xinhua": 6435,
  "mississau": 6436,
  "pji": 6437,
  "waste2energy": 6438,
  "convey": 6439,
  "fresh": 6440,
  "peregrine": 6441,
  "mississauga": 6442,
  "1j": 6443,
  "220": 6444,
  "iac": 6445,
  "pss": 6446,
  "song": 6447,
  "tas": 6448,
  "wq": 6449,
  "##52": 6450,
  "##cp": 6451,
  "##ht": 6452,
  "##aco": 6453,
  "noted": 6454,
  "collective": 6455,
  "##iva": 6456,
  "1400": 6457,
  "##aker": 6458,
  "generic": 6459,
  "waivers": 6460,
  "068": 6461,
  "kingdome": 6462,
  "participants": 6463,
  "wqht": 6464,
  "mumb": 6465,
  "##view": 6466,
  "##etes": 6467,
  "agreeable": 6468,
  "knows": 6469,
  "deliveries": 6470,
  "depic": 6471,
  "goods": 6472,
  "anno": 6473,
  "77054": 6474,
  "harpo": 6475,
  "novo": 6476,
  "sheets": 6477,
  "hamilton": 6478,
  "reflect": 6479,
  "accelerate": 6480,
  "mumbai": 6481,
  "harpoon": 6482,
  "rcp": 6483,
  "smb": 6484,
  "##canic": 6485,
  "covid": 6486,
  "##eccanic": 6487,
  "reins": 6488,
  "##ameccanic": 6489,
  "electrameccanic": 6490,
  "auto": 6491,
  "originates": 6492,
  "guarantee": 6493,
  "tuniu": 6494,
  "automotive": 6495,
  "discovery": 6496,
  "intersect": 6497,
  "preceding": 6498,
  "smbc": 6499,
  "electrameccanica": 6500,
  "561": 6501,
  "burn": 6502,
  "ef": 6503,
  "karman": 6504,
  "og": 6505,
  "old": 6506,
  "rga": 6507,
  "von": 6508,
  "zong": 6509,
  "##auc": 6510,
  "##ken": 6511,
  "##qing": 6512,
  "##erance": 6513,
  "##action": 6514,
  "##olerance": 6515,
  "arden": 6516,
  "chong": 6517,
  "sev": 6518,
  "1260": 6519,
  "1311": 6520,
  "##otolerance": 6521,
  "accredit": 6522,
  "satis": 6523,
  "##shen": 6524,
  "##112": 6525,
  "secondary": 6526,
  "55112": 6527,
  "94061": 6528,
  "chapel": 6529,
  "394": 6530,
  "immunotolerance": 6531,
  "keeping": 6532,
  "possession": 6533,
  "92612": 6534,
  "navigation": 6535,
  "diagnostics": 6536,
  "certificate": 6537,
  "circumstances": 6538,
  "respectively": 6539,
  "reinsurance": 6540,
  "ogle": 6541,
  "zongshen": 6542,
  "chongqing": 6543,
  "fiber": 6544,
  "mts": 6545,
  "nig": 6546,
  "##l1": 6547,
  "##app": 6548,
  "##war": 6549,
  "##17": 6550,
  "##isc": 6551,
  "shown": 6552,
  "arcon": 6553,
  "pretz": 6554,
  "schwar": 6555,
  "paint": 6556,
  "##iversary": 6557,
  "anniversary": 6558,
  "074": 6559,
  "severally": 6560,
  "minerals": 6561,
  "tooling": 6562,
  "v5t": 6563,
  "1a4": 6564,
  "accredited": 6565,
  "arconic": 6566,
  "schwarz": 6567,
  "cle": 6568,
  "fa": 6569,
  "rm": 6570,
  "##ck": 6571,
  "agi": 6572,
  "introduce": 6573,
  "##ialsp": 6574,
  "invas": 6575,
  "funding": 6576,
  "actual": 6577,
  "280": 6578,
  "territorial": 6579,
  "initiatives": 6580,
  "approvals": 6581,
  "3306": 6582,
  "10017": 6583,
  "crock": 6584,
  "early": 6585,
  "radialsp": 6586,
  "downloads": 6587,
  "nigel": 6588,
  "pretzel": 6589,
  "crockett": 6590,
  "radialspark": 6591,
  "454": 6592,
  "sipp": 6593,
  "##lies": 6594,
  "##how": 6595,
  "##arb": 6596,
  "##ications": 6597,
  "extern": 6598,
  "##idg": 6599,
  "composition": 6600,
  "deer": 6601,
  "maria": 6602,
  "##ethyl": 6603,
  "##ender": 6604,
  "outsourced": 6605,
  "knowhow": 6606,
  "originally": 6607,
  "federally": 6608,
  "reserves": 6609,
  "##roducts": 6610,
  "##munications": 6611,
  "bioproducts": 6612,
  "telecommunications": 6613,
  "undertaking": 6614,
  "types": 6615,
  "faith": 6616,
  "muse": 6617,
  "##cer": 6618,
  "##39": 6619,
  "##etano": 6620,
  "extr": 6621,
  "##acional": 6622,
  "shop": 6623,
  "lend": 6624,
  "internacional": 6625,
  "302": 6626,
  "elig": 6627,
  "authorizations": 6628,
  "creates": 6629,
  "morello": 6630,
  "gaetano": 6631,
  "ferment": 6632,
  "##rocarb": 6633,
  "hydrocarb": 6634,
  "museum": 6635,
  "cast": 6636,
  "nasc": 6637,
  "nurs": 6638,
  "##work": 6639,
  "##74": 6640,
  "today": 6641,
  "##abetes": 6642,
  "##iring": 6643,
  "affiliation": 6644,
  "commercializing": 6645,
  "profound": 6646,
  "butter": 6647,
  "null": 6648,
  "diabetes": 6649,
  "executing": 6650,
  "participating": 6651,
  "hydrocarbons": 6652,
  "nascar": 6653,
  "080": 6654,
  "ned": 6655,
  "ore": 6656,
  "tum": 6657,
  "##do": 6658,
  "##cock": 6659,
  "##ume": 6660,
  "##vec": 6661,
  "##ero": 6662,
  "imrs": 6663,
  "##cox": 6664,
  "abbv": 6665,
  "remove": 6666,
  "initially": 6667,
  "##key": 6668,
  "originating": 6669,
  "freeze": 6670,
  "4301": 6671,
  "wilcox": 6672,
  "biopure": 6673,
  "##daq": 6674,
  "torvec": 6675,
  "fleet": 6676,
  "5701": 6677,
  "turnkey": 6678,
  "feat": 6679,
  "babcock": 6680,
  "acquiror": 6681,
  "consolidated": 6682,
  "nasdaq": 6683,
  "nederland": 6684,
  "oregon": 6685,
  "abbvie": 6686,
  "511": 6687,
  "baz": 6688,
  "favor": 6689,
  "kansas": 6690,
  "pdms": 6691,
  "pomac": 6692,
  "xil": 6693,
  "##ihu": 6694,
  "##isihu": 6695,
  "inqu": 6696,
  "compass": 6697,
  "##old": 6698,
  "beisihu": 6699,
  "soon": 6700,
  "chees": 6701,
  "##ancourt": 6702,
  "2101": 6703,
  "018": 6704,
  "ideal": 6705,
  "normal": 6706,
  "capacities": 6707,
  "guarantees": 6708,
  "entirety": 6709,
  "92130": 6710,
  "european": 6711,
  "58951000": 6712,
  "shangdi": 6713,
  "51110": 6714,
  "bazancourt": 6715,
  "pomacle": 6716,
  "xilu": 6717,
  "beisihuan": 6718,
  "hart": 6719,
  "mig": 6720,
  "sus": 6721,
  "zounds": 6722,
  "##ters": 6723,
  "##hov": 6724,
  "##alog": 6725,
  "report": 6726,
  "198": 6727,
  "operational": 6728,
  "bankers": 6729,
  "##erica": 6730,
  "identity": 6731,
  "remaining": 6732,
  "pipe": 6733,
  "3000": 6734,
  "10010": 6735,
  "specialized": 6736,
  "malden": 6737,
  "detailing": 6738,
  "02148": 6739,
  "##aska": 6740,
  "mp3": 6741,
  "printing": 6742,
  "winters": 6743,
  "pleasant": 6744,
  "depicted": 6745,
  "inquir": 6746,
  "695": 6747,
  "rx": 6748,
  "si": 6749,
  "since": 6750,
  "want": 6751,
  "ye": 6752,
  "##onio": 6753,
  "apps": 6754,
  "1515": 6755,
  "##aps": 6756,
  "webb": 6757,
  "advertisements": 6758,
  "built": 6759,
  "bracketed": 6760,
  "steam": 6761,
  "antonio": 6762,
  "validly": 6763,
  "chemicals": 6764,
  "improvements": 6765,
  "barre": 6766,
  "mfp": 6767,
  "catalog": 6768,
  "lenders": 6769,
  "1986": 6770,
  "3p": 6771,
  "330": 6772,
  "cm": 6773,
  "etc": 6774,
  "hwy": 6775,
  "nms": 6776,
  "rou": 6777,
  "tk": 6778,
  "tat": 6779,
  "tpc": 6780,
  "##sol": 6781,
  "##aud": 6782,
  "##ude": 6783,
  "couns": 6784,
  "amag": 6785,
  "fraud": 6786,
  "rot": 6787,
  "bond": 6788,
  "format": 6789,
  "renewable": 6790,
  "visible": 6791,
  "crops": 6792,
  "3200": 6793,
  "8525": 6794,
  "scottsdale": 6795,
  "unique": 6796,
  "lower": 6797,
  "reorgan": 6798,
  "awareness": 6799,
  "susp": 6800,
  "cmc": 6801,
  "tkci": 6802,
  "counsel": 6803,
  "801": 6804,
  "bw": 6805,
  "eigh": 6806,
  "mixed": 6807,
  "pod": 6808,
  "sport": 6809,
  "stor": 6810,
  "1120": 6811,
  "roll": 6812,
  "##limin": 6813,
  "investco": 6814,
  "obj": 6815,
  "307": 6816,
  "carlos": 6817,
  "##teum": 6818,
  "refus": 6819,
  "visual": 6820,
  "auragen": 6821,
  "viii": 6822,
  "consumers": 6823,
  "329": 6824,
  "pareteum": 6825,
  "crude": 6826,
  "shortages": 6827,
  "vitamin": 6828,
  "melbourne": 6829,
  "selection": 6830,
  "##boro": 6831,
  "proceeds": 6832,
  "strategies": 6833,
  "wheel": 6834,
  "podcasts": 6835,
  "5311": 6836,
  "bn": 6837,
  "carm": 6838,
  "gab": 6839,
  "mol": 6840,
  "vat": 6841,
  "##fit": 6842,
  "##feld": 6843,
  "##kmar": 6844,
  "##pke": 6845,
  "##xchange": 6846,
  "##erexchange": 6847,
  "deed": 6848,
  "##igeration": 6849,
  "deleted": 6850,
  "interfer": 6851,
  "amph": 6852,
  "requiring": 6853,
  "banks": 6854,
  "bug": 6855,
  "allee": 6856,
  "endorser": 6857,
  "##angzhou": 6858,
  "guangzhou": 6859,
  "netgro": 6860,
  "accesses": 6861,
  "swaps": 6862,
  "protected": 6863,
  "volkmar": 6864,
  "paperexchange": 6865,
  "94080": 6866,
  "cbc": 6867,
  "bonn": 6868,
  "rompke": 6869,
  "laboratories": 6870,
  "refrigeration": 6871,
  "bornefeld": 6872,
  "seventh": 6873,
  "inquiries": 6874,
  "53113": 6875,
  "bnl": 6876,
  "carmen": 6877,
  "gabriel": 6878,
  "netgrocer": 6879,
  "867": 6880,
  "cca": 6881,
  "hoc": 6882,
  "liber": 6883,
  "odm": 6884,
  "xim": 6885,
  "##dal": 6886,
  "##19": 6887,
  "##181": 6888,
  "##onal": 6889,
  "serves": 6890,
  "haeme": 6891,
  "unsec": 6892,
  "organic": 6893,
  "emerson": 6894,
  "attempt": 6895,
  "23108": 6896,
  "##netic": 6897,
  "whole": 6898,
  "purchases": 6899,
  "flow": 6900,
  "ft181": 6901,
  "phasebio": 6902,
  "quarterly": 6903,
  "preparations": 6904,
  "holiday": 6905,
  "shoppe": 6906,
  "migdal": 6907,
  "storage": 6908,
  "liberty": 6909,
  "ximage": 6910,
  "haemek": 6911,
  "unsecured": 6912,
  "ft18150": 6913,
  "7311": 6914,
  "molds": 6915,
  "siem": 6916,
  "##pac": 6917,
  "##ela": 6918,
  "exempt": 6919,
  "reti": 6920,
  "dead": 6921,
  "standing": 6922,
  "wherein": 6923,
  "##restr": 6924,
  "haus": 6925,
  "##ansource": 6926,
  "transpac": 6927,
  "investing": 6928,
  "promin": 6929,
  "ala": 6930,
  "scansource": 6931,
  "futian": 6932,
  "cano": 6933,
  "renewed": 6934,
  "describes": 6935,
  "lini": 6936,
  "paragraphs": 6937,
  "vehicle": 6938,
  "spinal": 6939,
  "patients": 6940,
  "9100": 6941,
  "circuit": 6942,
  "functional": 6943,
  "injury": 6944,
  "extraction": 6945,
  "73112": 6946,
  "siemens": 6947,
  "transpacific": 6948,
  "0el": 6949,
  "otis": 6950,
  "wests": 6951,
  "##iers": 6952,
  "##660": 6953,
  "##urday": 6954,
  "##berta": 6955,
  "chair": 6956,
  "1865": 6957,
  "alberta": 6958,
  "deputy": 6959,
  "swiss": 6960,
  "blacksci": 6961,
  "bergen": 6962,
  "inspections": 6963,
  "saturday": 6964,
  "tribal": 6965,
  "07047": 6966,
  "charterer": 6967,
  "4700": 6968,
  "animal": 6969,
  "charging": 6970,
  "deadline": 6971,
  "westside": 6972,
  "chairman": 6973,
  "570": 6974,
  "ginger": 6975,
  "nw": 6976,
  "pent": 6977,
  "pad": 6978,
  "##eon": 6979,
  "##lity": 6980,
  "##yte": 6981,
  "##mud": 6982,
  "##ental": 6983,
  "store": 6984,
  "##ancy": 6985,
  "26th": 6986,
  "10013": 6987,
  "10016": 6988,
  "violation": 6989,
  "refusal": 6990,
  "##muda": 6991,
  "bul": 6992,
  "jg": 6993,
  "wind": 6994,
  "##oe": 6995,
  "compound": 6996,
  "show": 6997,
  "##ocyte": 6998,
  "truck": 6999,
  "delhi": 7000,
  "marina": 7001,
  "##encoe": 7002,
  "leuk": 7003,
  "signal": 7004,
  "understo": 7005,
  "retention": 7006,
  "##103": 7007,
  "loans": 7008,
  "bermuda": 7009,
  "bluff": 7010,
  "glencoe": 7011,
  "thru": 7012,
  "certifies": 7013,
  "biomedical": 7014,
  "rotation": 7015,
  "interferon": 7016,
  "jgc": 7017,
  "leukocyte": 7018,
  "understood": 7019,
  "59": 7020,
  "dental": 7021,
  "lar": 7022,
  "run": 7023,
  "##gar": 7024,
  "##bls": 7025,
  "ana": 7026,
  "terrestr": 7027,
  "stations": 7028,
  "dele": 7029,
  "spr": 7030,
  "prelimin": 7031,
  "1992": 7032,
  "imaging": 7033,
  "medium": 7034,
  "southe": 7035,
  "centres": 7036,
  "##502": 7037,
  "modifications": 7038,
  "##hold": 7039,
  "pfs": 7040,
  "requirement": 7041,
  "grove": 7042,
  "radios": 7043,
  "insurer": 7044,
  "remedy": 7045,
  "milestone": 7046,
  "felony": 7047,
  "prominent": 7048,
  "terrestrial": 7049,
  "preliminary": 7050,
  "66": 7051,
  "ble": 7052,
  "pred": 7053,
  "##nz": 7054,
  "##gation": 7055,
  "counc": 7056,
  "##arator": 7057,
  "org": 7058,
  "##tructure": 7059,
  "defensive": 7060,
  "submitted": 7061,
  "developments": 7062,
  "rose": 7063,
  "124": 7064,
  "##otarator": 7065,
  "bull": 7066,
  "##102": 7067,
  "##107": 7068,
  "##leton": 7069,
  "grenz": 7070,
  "expressions": 7071,
  "4070": 7072,
  "9801": 7073,
  "replacement": 7074,
  "infras": 7075,
  "volati": 7076,
  "snotarator": 7077,
  "##377": 7078,
  "cpdc": 7079,
  "workflows": 7080,
  "##acherstrasse": 7081,
  "features": 7082,
  "bulk": 7083,
  "council": 7084,
  "grenzacherstrasse": 7085,
  "infrastructure": 7086,
  "volatility": 7087,
  "72": 7088,
  "sir": 7089,
  "##equ": 7090,
  "##401": 7091,
  "##vest": 7092,
  "2069": 7093,
  "adequ": 7094,
  "##203": 7095,
  "signs": 7096,
  "##plus": 7097,
  "##place": 7098,
  "cycle": 7099,
  "surv": 7100,
  "349": 7101,
  "403": 7102,
  "changed": 7103,
  "woodland": 7104,
  "csa": 7105,
  "91367": 7106,
  "across": 7107,
  "hospitality": 7108,
  "pnc": 7109,
  "springs": 7110,
  "20692": 7111,
  "don": 7112,
  "ocs": 7113,
  "##inch": 7114,
  "##etcad": 7115,
  "##acon": 7116,
  "beacon": 7117,
  "##owork": 7118,
  "found": 7119,
  "##encies": 7120,
  "biowork": 7121,
  "nutr": 7122,
  "planetcad": 7123,
  "created": 7124,
  "creating": 7125,
  "##books": 7126,
  "indemnified": 7127,
  "hsi": 7128,
  "60605": 7129,
  "err": 7130,
  "sublicenses": 7131,
  "studies": 7132,
  "notify": 7133,
  "padre": 7134,
  "bioworks": 7135,
  "bund": 7136,
  "cry": 7137,
  "##money": 7138,
  "##ntin": 7139,
  "##actions": 7140,
  "lawful": 7141,
  "##ished": 7142,
  "index": 7143,
  "dryd": 7144,
  "##ugn": 7145,
  "harvest": 7146,
  "quickbooks": 7147,
  "undertakes": 7148,
  "discontin": 7149,
  "adjustment": 7150,
  "middle": 7151,
  "drydock": 7152,
  "088": 7153,
  "56": 7154,
  "dai": 7155,
  "hci": 7156,
  "jur": 7157,
  "sig": 7158,
  "##tures": 7159,
  "##eh": 7160,
  "##wu": 7161,
  "##cal": 7162,
  "##isdic": 7163,
  "atn": 7164,
  "font": 7165,
  "##ension": 7166,
  "witnesses": 7167,
  "invoice": 7168,
  "fiscal": 7169,
  "fixtures": 7170,
  "copyrights": 7171,
  "doub": 7172,
  "substitute": 7173,
  "enhancements": 7174,
  "jurisdic": 7175,
  "siga": 7176,
  "div": 7177,
  "self": 7178,
  "##373": 7179,
  "##erra": 7180,
  "##iture": 7181,
  "##asand": 7182,
  "##urse": 7183,
  "rej": 7184,
  "reven": 7185,
  "##ffer": 7186,
  "trasand": 7187,
  "commnet": 7188,
  "certa": 7189,
  "boeh": 7190,
  "assignable": 7191,
  "designed": 7192,
  "adverse": 7193,
  "gasification": 7194,
  "indemnity": 7195,
  "protective": 7196,
  "##ringer": 7197,
  "louisville": 7198,
  "suspension": 7199,
  "fonterra": 7200,
  "revenues": 7201,
  "trasandino": 7202,
  "boehringer": 7203,
  "9101": 7204,
  "had": 7205,
  "hend": 7206,
  "lem": 7207,
  "##ries": 7208,
  "##aft": 7209,
  "##gcr": 7210,
  "infl": 7211,
  "isle": 7212,
  "##ador": 7213,
  "while": 7214,
  "109": 7215,
  "##ectives": 7216,
  "##olutions": 7217,
  "##omaterial": 7218,
  "##amm": 7219,
  "leave": 7220,
  "##rovia": 7221,
  "countries": 7222,
  "afsl": 7223,
  "nanomaterial": 7224,
  "nature": 7225,
  "19001": 7226,
  "monrovia": 7227,
  "resulting": 7228,
  "delayed": 7229,
  "sublicensing": 7230,
  "mbgcr": 7231,
  "prospect": 7232,
  "fengfan": 7233,
  "objectives": 7234,
  "91016": 7235,
  "henderson": 7236,
  "lemon": 7237,
  "nanomaterials": 7238,
  "745": 7239,
  "cfo": 7240,
  "kam": 7241,
  "lett": 7242,
  "ml": 7243,
  "##gade": 7244,
  "##hagen": 7245,
  "##artic": 7246,
  "##enhagen": 7247,
  "##ectious": 7248,
  "shakes": 7249,
  "sogade": 7250,
  "repugn": 7251,
  "pharmac": 7252,
  "finished": 7253,
  "copenhagen": 7254,
  "norre": 7255,
  "collaborate": 7256,
  "supports": 7257,
  "##soever": 7258,
  "detection": 7259,
  "infectious": 7260,
  "1016": 7261,
  "nanopartic": 7262,
  "inflamm": 7263,
  "letters": 7264,
  "repugnant": 7265,
  "inflammatory": 7266,
  "ctd": 7267,
  "dia": 7268,
  "jud": 7269,
  "jiu": 7270,
  "nik": 7271,
  "yu": 7272,
  "comerc": 7273,
  "collecting": 7274,
  "prompt": 7275,
  "organis": 7276,
  "email": 7277,
  "compliant": 7278,
  "##919": 7279,
  "farming": 7280,
  "longer": 7281,
  "tianying": 7282,
  "ppi": 7283,
  "extensions": 7284,
  "assump": 7285,
  "debt": 7286,
  "intentional": 7287,
  "undertakings": 7288,
  "widely": 7289,
  "dunde": 7290,
  "rejection": 7291,
  "mlx": 7292,
  "ctdna": 7293,
  "diamond": 7294,
  "jiuzhou": 7295,
  "nikko": 7296,
  "comercio": 7297,
  "6291": 7298,
  "86": 7299,
  "half": 7300,
  "##acqu": 7301,
  "##urgery": 7302,
  "rendered": 7303,
  "reacqu": 7304,
  "what": 7305,
  "corporations": 7306,
  "tri": 7307,
  "granting": 7308,
  "230": 7309,
  "originators": 7310,
  "visp": 7311,
  "voic": 7312,
  "4000": 7313,
  "ground": 7314,
  "placements": 7315,
  "utilize": 7316,
  "enhance": 7317,
  "paulo": 7318,
  "grime": 7319,
  "conveyance": 7320,
  "adequate": 7321,
  "jurisdiction": 7322,
  "reacquisition": 7323,
  "clo": 7324,
  "fulf": 7325,
  "games": 7326,
  "hip": 7327,
  "surre": 7328,
  "##miting": 7329,
  "forum": 7330,
  "limiting": 7331,
  "star": 7332,
  "effecti": 7333,
  "confir": 7334,
  "defines": 7335,
  "indent": 7336,
  "brows": 7337,
  "domes": 7338,
  "platforms": 7339,
  "94087": 7340,
  "emerg": 7341,
  "terrace": 7342,
  "target": 7343,
  "receiving": 7344,
  "browser": 7345,
  "veric": 7346,
  "wmb": 7347,
  "##tier": 7348,
  "##char": 7349,
  "stage": 7350,
  "affin": 7351,
  "respects": 7352,
  "holly": 7353,
  "biei": 7354,
  "offers": 7355,
  "timeline": 7356,
  "auditors": 7357,
  "furniture": 7358,
  "midtier": 7359,
  "transitional": 7360,
  "duplicative": 7361,
  "veterinary": 7362,
  "stephen": 7363,
  "assumption": 7364,
  "vericel": 7365,
  "wmbd": 7366,
  "hollywood": 7367,
  "gives": 7368,
  "pest": 7369,
  "pock": 7370,
  "##rome": 7371,
  "come": 7372,
  "arab": 7373,
  "chrome": 7374,
  "contrary": 7375,
  "1640": 7376,
  "pound": 7377,
  "independently": 7378,
  "small": 7379,
  "##902": 7380,
  "06902": 7381,
  "furnishings": 7382,
  "rghl": 7383,
  "stamford": 7384,
  "charged": 7385,
  "robotics": 7386,
  "3255": 7387,
  "organisms": 7388,
  "jans": 7389,
  "pass": 7390,
  "rod": 7391,
  "rick": 7392,
  "russ": 7393,
  "##amental": 7394,
  "##yak": 7395,
  "excep": 7396,
  "sharing": 7397,
  "nothing": 7398,
  "fundamental": 7399,
  "goal": 7400,
  "decis": 7401,
  "decrease": 7402,
  "gener": 7403,
  "midl": 7404,
  "institute": 7405,
  "bloomington": 7406,
  "shinyak": 7407,
  "delegate": 7408,
  "pocket": 7409,
  "janssen": 7410,
  "shinyaku": 7411,
  "crick": 7412,
  "lights": 7413,
  "sit": 7414,
  "##eu": 7415,
  "##enth": 7416,
  "##rogen": 7417,
  "exempl": 7418,
  "##ola": 7419,
  "soup": 7420,
  "1935": 7421,
  "##202": 7422,
  "docs": 7423,
  "2681": 7424,
  "saud": 7425,
  "purchasing": 7426,
  "revolution": 7427,
  "##871": 7428,
  "ordinary": 7429,
  "dispos": 7430,
  "105216": 7431,
  "malvern": 7432,
  "medicines": 7433,
  "motorola": 7434,
  "carrying": 7435,
  "acquiring": 7436,
  "ky1": 7437,
  "candidates": 7438,
  "voicet": 7439,
  "confirmed": 7440,
  "cricket": 7441,
  "exemplary": 7442,
  "19355": 7443,
  "105216871": 7444,
  "8000": 7445,
  "avent": 7446,
  "kow": 7447,
  "mam": 7448,
  "qwi": 7449,
  "tsui": 7450,
  "vila": 7451,
  "##oid": 7452,
  "##sala": 7453,
  "##bial": 7454,
  "##uat": 7455,
  "##urred": 7456,
  "##antic": 7457,
  "spati": 7458,
  "intervention": 7459,
  "##loon": 7460,
  "formal": 7461,
  "elements": 7462,
  "marketer": 7463,
  "avoid": 7464,
  "02210": 7465,
  "expression": 7466,
  "afsala": 7467,
  "microbial": 7468,
  "particular": 7469,
  "converted": 7470,
  "5858": 7471,
  "estim": 7472,
  "horton": 7473,
  "vanuat": 7474,
  "psm": 7475,
  "##malian": 7476,
  "milestones": 7477,
  "deploying": 7478,
  "venue": 7479,
  "whatsoever": 7480,
  "fulfill": 7481,
  "midlantic": 7482,
  "voicetones": 7483,
  "aventis": 7484,
  "kowloon": 7485,
  "mammalian": 7486,
  "qwik": 7487,
  "spatial": 7488,
  "vanuatu": 7489,
  "fair": 7490,
  "##cod": 7491,
  "##inaw": 7492,
  "##onstr": 7493,
  "##807": 7494,
  "fields": 7495,
  "dispose": 7496,
  "08807": 7497,
  "prepare": 7498,
  "cologne": 7499,
  "saginaw": 7500,
  "foundation": 7501,
  "##code": 7502,
  "eft": 7503,
  "fdic": 7504,
  "l8": 7505,
  "ninet": 7506,
  "raw": 7507,
  "##atic": 7508,
  "##yang": 7509,
  "##vice": 7510,
  "chao": 7511,
  "desir": 7512,
  "round": 7513,
  "29615": 7514,
  "logue": 7515,
  "processes": 7516,
  "headings": 7517,
  "greenville": 7518,
  "repairer": 7519,
  "postcode": 7520,
  "58951005": 7521,
  "labeling": 7522,
  "front": 7523,
  "alternative": 7524,
  "tasman": 7525,
  "promptly": 7526,
  "chaoyang": 7527,
  "pos": 7528,
  "ton": 7529,
  "##sch": 7530,
  "##bas": 7531,
  "##ira": 7532,
  "spain": 7533,
  "check": 7534,
  "##uneration": 7535,
  "promise": 7536,
  "##osehead": 7537,
  "goosehead": 7538,
  "upgr": 7539,
  "##axo": 7540,
  "311": 7541,
  "button": 7542,
  "remuneration": 7543,
  "##ava": 7544,
  "grass": 7545,
  "qualified": 7546,
  "twenty": 7547,
  "pacira": 7548,
  "glaxo": 7549,
  "inspect": 7550,
  "volume": 7551,
  "remainco": 7552,
  "society": 7553,
  "should": 7554,
  "calculated": 7555,
  "outlets": 7556,
  "batch": 7557,
  "sooner": 7558,
  "ninety": 7559,
  "grassland": 7560,
  "##tate": 7561,
  "##yment": 7562,
  "##mt": 7563,
  "##tionally": 7564,
  "##ased": 7565,
  "##chsch": 7566,
  "advice": 7567,
  "cam": 7568,
  "securing": 7569,
  "125": 7570,
  "streams": 7571,
  "expire": 7572,
  "hochsch": 7573,
  "grc": 7574,
  "itemized": 7575,
  "expert": 7576,
  "severabili": 7577,
  "appearance": 7578,
  "stamped": 7579,
  "interstate": 7580,
  "myers": 7581,
  "errors": 7582,
  "debtors": 7583,
  "hochschild": 7584,
  "zhu": 7585,
  "##wau": 7586,
  "##bem": 7587,
  "##xin": 7588,
  "##arle": 7589,
  "withdr": 7590,
  "10248": 7591,
  "novel": 7592,
  "##206": 7593,
  "albem": 7594,
  "signage": 7595,
  "222": 7596,
  "shipment": 7597,
  "##cribed": 7598,
  "creation": 7599,
  "milwau": 7600,
  "7000": 7601,
  "hsw": 7602,
  "80206": 7603,
  "##airs": 7604,
  "engineer": 7605,
  "02141": 7606,
  "considerable": 7607,
  "certificates": 7608,
  "beta": 7609,
  "mfw": 7610,
  "battery": 7611,
  "gaoxin": 7612,
  "07424": 7613,
  "clove": 7614,
  "decision": 7615,
  "withdraw": 7616,
  "albemarle": 7617,
  "milwaukee": 7618,
  "esp": 7619,
  "ia": 7620,
  "nuclear": 7621,
  "pin": 7622,
  "rica": 7623,
  "##nold": 7624,
  "##gger": 7625,
  "##court": 7626,
  "##nden": 7627,
  "##empor": 7628,
  "arnold": 7629,
  "confidentially": 7630,
  "incorporate": 7631,
  "assignee": 7632,
  "##enegger": 7633,
  "advisers": 7634,
  "biolog": 7635,
  "reselling": 7636,
  "adminis": 7637,
  "homewood": 7638,
  "60601": 7639,
  "displayed": 7640,
  "costa": 7641,
  "unconditionally": 7642,
  "vitam": 7643,
  "balls": 7644,
  "absence": 7645,
  "proposal": 7646,
  "category": 7647,
  "choice": 7648,
  "schwarzenegger": 7649,
  "321": 7650,
  "465": 7651,
  "kato": 7652,
  "€500": 7653,
  "##tai": 7654,
  "##gor": 7655,
  "##gis": 7656,
  "##tigation": 7657,
  "##orical": 7658,
  "andro": 7659,
  "sumit": 7660,
  "death": 7661,
  "##omo": 7662,
  "arises": 7663,
  "articles": 7664,
  "##iliary": 7665,
  "capability": 7666,
  "sponsorships": 7667,
  "9453": 7668,
  "worked": 7669,
  "obtaining": 7670,
  "nutritional": 7671,
  "mitsui": 7672,
  "causes": 7673,
  "becomes": 7674,
  "historical": 7675,
  "domiciliary": 7676,
  "46500": 7677,
  "sumitomo": 7678,
  "94538": 7679,
  "3n": 7680,
  "mess": 7681,
  "##rical": 7682,
  "##bers": 7683,
  "##46": 7684,
  "##rep": 7685,
  "inacc": 7686,
  "shun": 7687,
  "##ulpt": 7688,
  "1595": 7689,
  "stra": 7690,
  "alter": 7691,
  "sculpt": 7692,
  "##teenth": 7693,
  "##minster": 7694,
  "equipped": 7695,
  "##ultaneous": 7696,
  "boards": 7697,
  "antib": 7698,
  "sixteenth": 7699,
  "usd5": 7700,
  "theatrical": 7701,
  "l4b": 7702,
  "notification": 7703,
  "dispositive": 7704,
  "3n9": 7705,
  "sculptor": 7706,
  "bot": 7707,
  "sma": 7708,
  "##atis": 7709,
  "##burs": 7710,
  "inland": 7711,
  "iship": 7712,
  "corporat": 7713,
  "##emplo": 7714,
  "transiting": 7715,
  "##tdown": 7716,
  "sponsors": 7717,
  "franchises": 7718,
  "publicizing": 7719,
  "issues": 7720,
  "purchased": 7721,
  "cybers": 7722,
  "apcn2": 7723,
  "invented": 7724,
  "meltdown": 7725,
  "competitors": 7726,
  "selected": 7727,
  "fifth": 7728,
  "inaccur": 7729,
  "bott": 7730,
  "##employment": 7731,
  "jard": 7732,
  "late": 7733,
  "position": 7734,
  "##aash": 7735,
  "##eton": 7736,
  "comply": 7737,
  "##omer": 7738,
  "defi": 7739,
  "distributed": 7740,
  "loca": 7741,
  "##cont": 7742,
  "##ght": 7743,
  "survi": 7744,
  "##emedia": 7745,
  "presenting": 7746,
  "cinemedia": 7747,
  "involved": 7748,
  "##ildren": 7749,
  "smaaash": 7750,
  "surviving": 7751,
  "aiz": 7752,
  "fsl": 7753,
  "ott": 7754,
  "tl": 7755,
  "tender": 7756,
  "vote": 7757,
  "##iance": 7758,
  "##fir": 7759,
  "##doc": 7760,
  "##cust": 7761,
  "##cusable": 7762,
  "##orm": 7763,
  "parts": 7764,
  "20fir": 7765,
  "10change": 7766,
  "##stnet": 7767,
  "##007": 7768,
  "children": 7769,
  "19ex": 7770,
  "transph": 7771,
  "11cont": 7772,
  "affli": 7773,
  "12cust": 7774,
  "14delivery": 7775,
  "15delivery": 7776,
  "definitions1": 7777,
  "##umentation": 7778,
  "reliance": 7779,
  "16doc": 7780,
  "17dr": 7781,
  "18employment": 7782,
  "pharmaceu": 7783,
  "endorsed": 7784,
  "designates": 7785,
  "forecast": 7786,
  "13deliver": 7787,
  "revok": 7788,
  "poly": 7789,
  "provi": 7790,
  "sufficiently": 7791,
  "cancellation": 7792,
  "losses": 7793,
  "derivatives": 7794,
  "evidenc": 7795,
  "supersedes": 7796,
  "deploy": 7797,
  "carbon": 7798,
  "aizu": 7799,
  "20firstnet": 7800,
  "19excusable": 7801,
  "transphorm": 7802,
  "11control": 7803,
  "12customer": 7804,
  "16documentation": 7805,
  "17drug": 7806,
  "13deliverable": 7807,
  "713": 7808,
  "880": 7809,
  "binger": 7810,
  "##tons": 7811,
  "##bach": 7812,
  "##buck": 7813,
  "##ße": 7814,
  "##itary": 7815,
  "##alate": 7816,
  "##icated": 7817,
  "ask": 7818,
  "prod": 7819,
  "##ades": 7820,
  "##adbach": 7821,
  "whom": 7822,
  "##agon": 7823,
  "##odian": 7824,
  "assisting": 7825,
  "amc": 7826,
  "##clinical": 7827,
  "##iov": 7828,
  "custodian": 7829,
  "customs": 7830,
  "dragon": 7831,
  "173": 7832,
  "hole": 7833,
  "2130": 7834,
  "clutter": 7835,
  "gene": 7836,
  "networking": 7837,
  "017": 7838,
  "buttons": 7839,
  "parking": 7840,
  "bergis": 7841,
  "55216": 7842,
  "51429": 7843,
  "6000": 7844,
  "simp": 7845,
  "madrid": 7846,
  "gladbach": 7847,
  "instruction": 7848,
  "zhonggu": 7849,
  "overview": 7850,
  "township": 7851,
  "severability": 7852,
  "exercises": 7853,
  "6500": 7854,
  "mpm": 7855,
  "theatre": 7856,
  "notifications": 7857,
  "journal": 7858,
  "oversight": 7859,
  "mariah": 7860,
  "##ethylene": 7861,
  "castell": 7862,
  "administered": 7863,
  "straße": 7864,
  "inaccurate": 7865,
  "clutterbuck": 7866,
  "bergisch": 7867,
  "zhongguancun": 7868,
  "afore": 7869,
  "crest": 7870,
  "dg": 7871,
  "fib": 7872,
  "ig": 7873,
  "mesh": 7874,
  "nai": 7875,
  "pict": 7876,
  "##96": 7877,
  "##uff": 7878,
  "##edal": 7879,
  "##mention": 7880,
  "##ayer": 7881,
  "##aged": 7882,
  "litigation": 7883,
  "mario": 7884,
  "1989": 7885,
  "affairs": 7886,
  "formally": 7887,
  "amongst": 7888,
  "saif": 7889,
  "military": 7890,
  "sandton": 7891,
  "utility": 7892,
  "contributions": 7893,
  "theatres": 7894,
  "calculation": 7895,
  "shelby": 7896,
  "venues": 7897,
  "attribution": 7898,
  "satisfact": 7899,
  "butterfield": 7900,
  "intentionally": 7901,
  "messages": 7902,
  "antibody": 7903,
  "affliate": 7904,
  "aforemention": 7905,
  "fibrogen": 7906,
  "aforementioned": 7907,
  "006": 7908,
  "388": 7909,
  "445": 7910,
  "550": 7911,
  "812": 7912,
  "dul": 7913,
  "diet": 7914,
  "rang": 7915,
  "wings": 7916,
  "yield": 7917,
  "##will": 7918,
  "##wave": 7919,
  "##where": 7920,
  "##bj": 7921,
  "thayer": 7922,
  "##inish": 7923,
  "##ibb": 7924,
  "##ported": 7925,
  "anch": 7926,
  "soft": 7927,
  "appearing": 7928,
  "phr": 7929,
  "forma": 7930,
  "cars": 7931,
  "##213": 7932,
  "268": 7933,
  "223": 7934,
  "optic": 7935,
  "teaching": 7936,
  "edit": 7937,
  "microwave": 7938,
  "30096": 7939,
  "indemnities": 7940,
  "3467": 7941,
  "frequ": 7942,
  "clarity": 7943,
  "wave": 7944,
  "pactiv": 7945,
  "hillsboro": 7946,
  "hua": 7947,
  "squibb": 7948,
  "33442": 7949,
  "pointers": 7950,
  "sandridge": 7951,
  "919": 7952,
  "robinson": 7953,
  "printed": 7954,
  "210001": 7955,
  "mansion": 7956,
  "drilled": 7957,
  "sunday": 7958,
  "deerfield": 7959,
  "withdrawal": 7960,
  "crestwood": 7961,
  "satisfactory": 7962,
  "3885": 7963,
  "duluth": 7964,
  "96": 7965,
  "cep": 7966,
  "ddc": 7967,
  "hon": 7968,
  "jury": 7969,
  "kc": 7970,
  "wisc": 7971,
  "xsim": 7972,
  "##face": 7973,
  "##1213": 7974,
  "##jet": 7975,
  "theory": 7976,
  "ascribed": 7977,
  "2045": 7978,
  "1050": 7979,
  "trail": 7980,
  "licensees": 7981,
  "spiv": 7982,
  "##onsin": 7983,
  "##ichuxing": 7984,
  "union": 7985,
  "pursue": 7986,
  "nonclinical": 7987,
  "20181213": 7988,
  "virus": 7989,
  "##criptions": 7990,
  "gregory": 7991,
  "https": 7992,
  "sufficient": 7993,
  "teams": 7994,
  "willingness": 7995,
  "installation": 7996,
  "governmental": 7997,
  "##0044": 7998,
  "jaguar": 7999,
  "department": 8000,
  "didichuxing": 8001,
  "beneficiaries": 8002,
  "passes": 8003,
  "pinon": 8004,
  "igene": 8005,
  "pictures": 8006,
  "phrase": 8007,
  "ddcx": 8008,
  "wisconsin": 8009,
  "xsimultaneous": 8010,
  "spivy": 8011,
  "201812130044": 8012,
  "aero": 8013,
  "jul": 8014,
  "listing": 8015,
  "num": 8016,
  "nurse": 8017,
  "oma": 8018,
  "pu": 8019,
  "rico": 8020,
  "sonia": 8021,
  "tare": 8022,
  "tall": 8023,
  "vand": 8024,
  "wr": 8025,
  "w2": 8026,
  "##law": 8027,
  "##lava": 8028,
  "##iop": 8029,
  "##iqu": 8030,
  "##hur": 8031,
  "##630": 8032,
  "##erto": 8033,
  "##ndhur": 8034,
  "##ito": 8035,
  "##tioners": 8036,
  "inev": 8037,
  "##veiop": 8038,
  "##chang": 8039,
  "compr": 8040,
  "10005": 8041,
  "##ffin": 8042,
  "shuff": 8043,
  "chath": 8044,
  "anything": 8045,
  "bratis": 8046,
  "techniqu": 8047,
  "affirm": 8048,
  "pursuits": 8049,
  "##encia": 8050,
  "synd": 8051,
  "##grass": 8052,
  "useful": 8053,
  "valencia": 8054,
  "finra": 8055,
  "2815": 8056,
  "saf": 8057,
  "##ashion": 8058,
  "swed": 8059,
  "92630": 8060,
  "steven": 8061,
  "assistants": 8062,
  "07928": 8063,
  "automated": 8064,
  "323": 8065,
  "##tzer": 8066,
  "33328": 8067,
  "102nd": 8068,
  "10400": 8069,
  "summ": 8070,
  "07071": 8071,
  "meltzer": 8072,
  "practitioners": 8073,
  "dougl": 8074,
  "##5925": 8075,
  "seattlesoftwaredeveiop": 8076,
  "departments": 8077,
  "screens": 8078,
  "lyndhur": 8079,
  "griffin": 8080,
  "20321": 8081,
  "2205925": 8082,
  "nurses": 8083,
  "upgrades": 8084,
  "biological": 8085,
  "aerojet": 8086,
  "julian": 8087,
  "puerto": 8088,
  "tarek": 8089,
  "tallgrass": 8090,
  "w2e": 8091,
  "inevitable": 8092,
  "chatham": 8093,
  "bratislava": 8094,
  "douglas": 8095,
  "seattlesoftwaredeveiopers": 8096,
  "lyndhurst": 8097,
  "2t": 8098,
  "5b5": 8099,
  "gains": 8100,
  "icas": 8101,
  "jen": 8102,
  "m2": 8103,
  "pens": 8104,
  "p1b": 8105,
  "sick": 8106,
  "utc": 8107,
  "theme": 8108,
  "coordin": 8109,
  "progress": 8110,
  "204": 8111,
  "orito": 8112,
  "##aded": 8113,
  "story": 8114,
  "actively": 8115,
  "##ppard": 8116,
  "prud": 8117,
  "plot": 8118,
  "frame": 8119,
  "##ologies": 8120,
  "1222": 8121,
  "##umerated": 8122,
  "1700": 8123,
  "mask": 8124,
  "2235": 8125,
  "enumerated": 8126,
  "gude": 8127,
  "processors": 8128,
  "imposed": 8129,
  "commenced": 8130,
  "surface": 8131,
  "551": 8132,
  "hotels": 8133,
  "772": 8134,
  "triple": 8135,
  "sfg": 8136,
  "appeared": 8137,
  "counterfe": 8138,
  "cellco": 8139,
  "counterparty": 8140,
  "quantum": 8141,
  "important": 8142,
  "rockville": 8143,
  "bruce": 8144,
  "classes": 8145,
  "korean": 8146,
  "stamps": 8147,
  "sheppard": 8148,
  "67th": 8149,
  "iosk": 8150,
  "holidays": 8151,
  "20850": 8152,
  "eighth": 8153,
  "numer": 8154,
  "##changed": 8155,
  "swedish": 8156,
  "2t6": 8157,
  "gainsco": 8158,
  "jenner": 8159,
  "m2j": 8160,
  "pensions": 8161,
  "sickness": 8162,
  "866": 8163,
  "gig": 8164,
  "kes": 8165,
  "nduce": 8166,
  "nancy": 8167,
  "omo": 8168,
  "sight": 8169,
  "vard": 8170,
  "##lement": 8171,
  "##nch": 8172,
  "##w20": 8173,
  "##asm": 8174,
  "ford": 8175,
  "dist": 8176,
  "marple": 8177,
  "chu": 8178,
  "cham": 8179,
  "allen": 8180,
  "##unced": 8181,
  "unbj": 8182,
  "sellers": 8183,
  "bankcard": 8184,
  "1990": 8185,
  "24th": 8186,
  "##34w20": 8187,
  "impro": 8188,
  "plano": 8189,
  "indemnite": 8190,
  "addenda": 8191,
  "hosted": 8192,
  "5810": 8193,
  "huang": 8194,
  "untied": 8195,
  "5791": 8196,
  "burton": 8197,
  "duplicate": 8198,
  "89120": 8199,
  "dundee": 8200,
  "buyers": 8201,
  "batteries": 8202,
  "interfaces": 8203,
  "announced": 8204,
  "barrel": 8205,
  "30734w20": 8206,
  "counterfeiting": 8207,
  "nducemen": 8208,
  "sightlife": 8209,
  "varde": 8210,
  "30734w208": 8211,
  "541": 8212,
  "9t": 8213,
  "a29": 8214,
  "bny": 8215,
  "dcl": 8216,
  "hug": 8217,
  "kel": 8218,
  "kid": 8219,
  "urs": 8220,
  "vic": 8221,
  "##oding": 8222,
  "##fall": 8223,
  "##gles": 8224,
  "##we": 8225,
  "##crest": 8226,
  "##264": 8227,
  "##erbil": 8228,
  "##arom": 8229,
  "##utarom": 8230,
  "lion": 8231,
  "##owner": 8232,
  "##achi": 8233,
  "##perial": 8234,
  "developers": 8235,
  "near": 8236,
  "sender": 8237,
  "descriptions": 8238,
  "dayton": 8239,
  "12264": 8240,
  "bould": 8241,
  "##ards": 8242,
  "customarily": 8243,
  "synch": 8244,
  "shareowner": 8245,
  "dry": 8246,
  "mouss": 8247,
  "imperial": 8248,
  "excited": 8249,
  "##aka": 8250,
  "roadhouse": 8251,
  "southpoint": 8252,
  "goodwill": 8253,
  "##timore": 8254,
  "facsim": 8255,
  "freeco": 8256,
  "portals": 8257,
  "80301": 8258,
  "digitally": 8259,
  "32216": 8260,
  "##889": 8261,
  "98101": 8262,
  "diversity": 8263,
  "staff": 8264,
  "8564": 8265,
  "mercata": 8266,
  "pressure": 8267,
  "baoding": 8268,
  "appearances": 8269,
  "biotechnologies": 8270,
  "75024": 8271,
  "osaka": 8272,
  "considerations": 8273,
  "efficient": 8274,
  "strictly": 8275,
  "photography": 8276,
  "raise": 8277,
  "kyutarom": 8278,
  "baltimore": 8279,
  "6505": 8280,
  "4345": 8281,
  "efashion": 8282,
  "windcrest": 8283,
  "vanderbil": 8284,
  "syndicated": 8285,
  "safety": 8286,
  "summary": 8287,
  "giggles": 8288,
  "chuo": 8289,
  "champ": 8290,
  "a29889": 8291,
  "hugs": 8292,
  "kelly": 8293,
  "kiddo": 8294,
  "daytona": 8295,
  "boulder": 8296,
  "synchron": 8297,
  "moussa": 8298,
  "facsimile": 8299,
  "freecook": 8300,
  "kyutaromachi": 8301,
  "vanderbilt": 8302,
  "1y": 8303,
  "3at": 8304,
  "370": 8305,
  "680": 8306,
  "669": 8307,
  "a3": 8308,
  "bag": 8309,
  "cup": 8310,
  "l9": 8311,
  "migh": 8312,
  "misco": 8313,
  "rmf": 8314,
  "rsl": 8315,
  "tate": 8316,
  "task": 8317,
  "vap": 8318,
  "##fund": 8319,
  "##566": 8320,
  "##cia": 8321,
  "##bc": 8322,
  "##mwood": 8323,
  "##49": 8324,
  "##uard": 8325,
  "##36101": 8326,
  "##nduct": 8327,
  "##edy": 8328,
  "##edia": 8329,
  "##ingent": 8330,
  "incurred": 8331,
  "whene": 8332,
  "##ffili": 8333,
  "atom": 8334,
  "servicers": 8335,
  "##tycell": 8336,
  "secauc": 8337,
  "1122": 8338,
  "##ouching": 8339,
  "bob": 8340,
  "151": 8341,
  "fundra": 8342,
  "nonp": 8343,
  "draft": 8344,
  "elmwood": 8345,
  "heat": 8346,
  "2710": 8347,
  "researching": 8348,
  "retouching": 8349,
  "backed": 8350,
  "netcom": 8351,
  "##405": 8352,
  "2550": 8353,
  "3550": 8354,
  "races": 8355,
  "titled": 8356,
  "33566": 8357,
  "steeles": 8358,
  "polish": 8359,
  "07407": 8360,
  "tradeum": 8361,
  "bestev": 8362,
  "skyway": 8363,
  "mainly": 8364,
  "60611": 8365,
  "##geshire": 8366,
  "monica": 8367,
  "90405": 8368,
  "retailer": 8369,
  "shortfall": 8370,
  "94070": 8371,
  "cb22": 8372,
  "07094": 8373,
  "updated": 8374,
  "cambrid": 8375,
  "housing": 8376,
  "11036101": 8377,
  "garcia": 8378,
  "littleton": 8379,
  "lyle": 8380,
  "uniformity": 8381,
  "parcelway": 8382,
  "winston": 8383,
  "cologuard": 8384,
  "kennedy": 8385,
  "vitalis": 8386,
  "taipo": 8387,
  "3900a": 8388,
  "campus": 8389,
  "unaffili": 8390,
  "spokespersons": 8391,
  "paints": 8392,
  "routing": 8393,
  "80127": 8394,
  "wheeler": 8395,
  "affinity": 8396,
  "techniques": 8397,
  "champion": 8398,
  "1y1": 8399,
  "l9t": 8400,
  "mightycell": 8401,
  "misconduct": 8402,
  "whenever": 8403,
  "atomics": 8404,
  "secaucus": 8405,
  "fundraising": 8406,
  "271049": 8407,
  "cambridgeshire": 8408,
  "cologuard®": 8409,
  "unaffiliated": 8410,
  "42": 8411,
  "52": 8412,
  "730": 8413,
  "dot": 8414,
  "gang": 8415,
  "gra": 8416,
  "kang": 8417,
  "mj": 8418,
  "nar": 8419,
  "nmf": 8420,
  "sq": 8421,
  "tire": 8422,
  "v3": 8423,
  "wig": 8424,
  "yec": 8425,
  "zw": 8426,
  "##lam": 8427,
  "##aticomm": 8428,
  "##ius": 8429,
  "##d01": 8430,
  "##zawa": 8431,
  "##5b": 8432,
  "##ki": 8433,
  "##400": 8434,
  "##eda": 8435,
  "##itlam": 8436,
  "coqu": 8437,
  "##atsui": 8438,
  "parti": 8439,
  "convic": 8440,
  "whites": 8441,
  "##agnetic": 8442,
  "anr": 8443,
  "onem": 8444,
  "delta": 8445,
  "##actcom": 8446,
  "##0021": 8447,
  "##irki": 8448,
  "subordin": 8449,
  "amaz": 8450,
  "1130": 8451,
  "136": 8452,
  "##romagnetic": 8453,
  "1694": 8454,
  "18t": 8455,
  "18101": 8456,
  "##504": 8457,
  "commonwe": 8458,
  "retaining": 8459,
  "verify": 8460,
  "0001": 8461,
  "20007": 8462,
  "furtherance": 8463,
  "2512": 8464,
  "##shatsui": 8465,
  "commitments": 8466,
  "galaticomm": 8467,
  "galactcom": 8468,
  "players": 8469,
  "refinish": 8470,
  "ordin": 8471,
  "77027": 8472,
  "plazomic": 8473,
  "9512": 8474,
  "golden": 8475,
  "089": 8476,
  "##7171": 8477,
  "fails": 8478,
  "1055": 8479,
  "tribune": 8480,
  "reviewed": 8481,
  "##otherm": 8482,
  "91504": 8483,
  "electromagnetic": 8484,
  "certification": 8485,
  "1302": 8486,
  "alameda": 8487,
  "double": 8488,
  "studios": 8489,
  "chengli": 8490,
  "tsimshatsui": 8491,
  "warehouse": 8492,
  "craig": 8493,
  "kenneth": 8494,
  "lakeside": 8495,
  "59920021": 8496,
  "59927171": 8497,
  "herbal": 8498,
  "jefferson": 8499,
  "alleging": 8500,
  "warszawa": 8501,
  "voluntary": 8502,
  "fermentation": 8503,
  "nullify": 8504,
  "3p5": 8505,
  "reorganization": 8506,
  "visualant": 8507,
  "retired": 8508,
  "historically": 8509,
  "simply": 8510,
  "numerous": 8511,
  "vapotherm": 8512,
  "gravity": 8513,
  "sql": 8514,
  "v3k": 8515,
  "wigury": 8516,
  "zwirki": 8517,
  "##d0120": 8518,
  "##5bd0120": 8519,
  "coquitlam": 8520,
  "convicted": 8521,
  "whitesmo": 8522,
  "onemain": 8523,
  "amazon": 8524,
  "181015bd0120": 8525,
  "commonwealth": 8526,
  "galactcomm": 8527,
  "plazomicin": 8528,
  "95126": 8529,
  "360": 8530,
  "4949": 8531,
  "aitan": 8532,
  "crow": 8533,
  "dns": 8534,
  "gcc": 8535,
  "macy": 8536,
  "ner": 8537,
  "oli": 8538,
  "put": 8539,
  "rr": 8540,
  "rv": 8541,
  "sling": 8542,
  "tch": 8543,
  "vint": 8544,
  "xia": 8545,
  "xxxxxxxxx": 8546,
  "zach": 8547,
  "##ohua": 8548,
  "##tp": 8549,
  "##dam": 8550,
  "##deme": 8551,
  "##dfund": 8552,
  "##gine": 8553,
  "##c6": 8554,
  "##pn": 8555,
  "##anor": 8556,
  "##arin": 8557,
  "##enching": 8558,
  "##rofit": 8559,
  "rebro": 8560,
  "##adcast": 8561,
  "##trum": 8562,
  "##ecting": 8563,
  "##agra": 8564,
  "contend": 8565,
  "mara": 8566,
  "append": 8567,
  "amster": 8568,
  "##closed": 8569,
  "##urel": 8570,
  "roano": 8571,
  "1295": 8572,
  "willful": 8573,
  "##014": 8574,
  "organised": 8575,
  "imap": 8576,
  "oba": 8577,
  "211": 8578,
  "else": 8579,
  "##pho": 8580,
  "specify": 8581,
  "spectrum": 8582,
  "##3467": 8583,
  "centenn": 8584,
  "##5039": 8585,
  "2255": 8586,
  "##tengine": 8587,
  "mode": 8588,
  "quenching": 8589,
  "advertiser": 8590,
  "guohua": 8591,
  "##vanah": 8592,
  "acknowledgments": 8593,
  "laurel": 8594,
  "apt": 8595,
  "establishments": 8596,
  "37660": 8597,
  "373467": 8598,
  "carriers": 8599,
  "smtp": 8600,
  "carefully": 8601,
  "athene": 8602,
  "607": 8603,
  "morpho": 8604,
  "torch": 8605,
  "##tores": 8606,
  "misdeme": 8607,
  "33436": 8608,
  "summa": 8609,
  "please": 8610,
  "pleaded": 8611,
  "richards": 8612,
  "srl": 8613,
  "superstores": 8614,
  "athletes": 8615,
  "cw255039": 8616,
  "v6b1b": 8617,
  "firmware": 8618,
  "nominate": 8619,
  "nominations": 8620,
  "supersede": 8621,
  "negotiate": 8622,
  "immunoass": 8623,
  "carbogen": 8624,
  "684": 8625,
  "herbals": 8626,
  "landmark": 8627,
  "matthew": 8628,
  "bionutrients™": 8629,
  "brunswick": 8630,
  "nolo": 8631,
  "08054": 8632,
  "695014": 8633,
  "startengine": 8634,
  "indenture": 8635,
  "amcis": 8636,
  "coordinate": 8637,
  "nonprofit": 8638,
  "narrow": 8639,
  "crowdfund": 8640,
  "nervanah": 8641,
  "oliver": 8642,
  "rrt": 8643,
  "slinger": 8644,
  "vinton": 8645,
  "xiamen": 8646,
  "zacharin": 8647,
  "rebroadcast": 8648,
  "contendere": 8649,
  "amsterdam": 8650,
  "roanoke": 8651,
  "centennial": 8652,
  "37346733": 8653,
  "misdemeanor": 8654,
  "v6b1b7": 8655,
  "crowdfunding": 8656,
  "0l": 8657,
  "1n": 8658,
  "412": 8659,
  "595": 8660,
  "5c6": 8661,
  "alee": 8662,
  "average": 8663,
  "cab": 8664,
  "dil": 8665,
  "fts": 8666,
  "kap": 8667,
  "kemb": 8668,
  "mons": 8669,
  "mcle": 8670,
  "nbf": 8671,
  "ost": 8672,
  "rz": 8673,
  "rand": 8674,
  "smo": 8675,
  "tam": 8676,
  "vist": 8677,
  "wear": 8678,
  "##eant": 8679,
  "##rons": 8680,
  "##rist": 8681,
  "##aiss": 8682,
  "##fc": 8683,
  "##bara": 8684,
  "##park": 8685,
  "##rey": 8686,
  "##enton": 8687,
  "##itor": 8688,
  "##itral": 8689,
  "##ania": 8690,
  "##isense": 8691,
  "agr": 8692,
  "##roit": 8693,
  "##etul": 8694,
  "##urb": 8695,
  "##uscin": 8696,
  "##ibis": 8697,
  "##ibel": 8698,
  "##chers": 8699,
  "##adenton": 8700,
  "##anto": 8701,
  "##antis": 8702,
  "anap": 8703,
  "##olul": 8704,
  "shem": 8705,
  "##ului": 8706,
  "haven": 8707,
  "pledge": 8708,
  "manak": 8709,
  "##amu": 8710,
  "collect": 8711,
  "200c": 8712,
  "bradenton": 8713,
  "addresses": 8714,
  "imine": 8715,
  "terminals": 8716,
  "intellisense": 8717,
  "valeant": 8718,
  "2151": 8719,
  "scara": 8720,
  "idan": 8721,
  "2800": 8722,
  "229": 8723,
  "broward": 8724,
  "commonly": 8725,
  "2575": 8726,
  "##tinv": 8727,
  "##istry": 8728,
  "##ashera": 8729,
  "patron": 8730,
  "patrons": 8731,
  "howe": 8732,
  "howmed": 8733,
  "##305": 8734,
  "detroit": 8735,
  "##aii": 8736,
  "pole": 8737,
  "##pson": 8738,
  "indemnify": 8739,
  "timoth": 8740,
  "johnson": 8741,
  "##243": 8742,
  "watson": 8743,
  "walter": 8744,
  "95661": 8745,
  "availability": 8746,
  "morrist": 8747,
  "presents": 8748,
  "blocks": 8749,
  "33301": 8750,
  "hdfc": 8751,
  "points": 8752,
  "thompson": 8753,
  "barbara": 8754,
  "woodlaw": 8755,
  "##rera": 8756,
  "ballpark": 8757,
  "atlantis": 8758,
  "190305": 8759,
  "hanuscin": 8760,
  "letterhead": 8761,
  "ventura": 8762,
  "venturers": 8763,
  "jsma": 8764,
  "romania": 8765,
  "93001": 8766,
  "93101": 8767,
  "renaiss": 8768,
  "643": 8769,
  "07960": 8770,
  "sundial": 8771,
  "48243": 8772,
  "malinului": 8773,
  "uncitral": 8774,
  "vitalibis": 8775,
  "borrower": 8776,
  "jeffrey": 8777,
  "96822": 8778,
  "pvtinv": 8779,
  "correspondence": 8780,
  "rmr": 8781,
  "externally": 8782,
  "43017": 8783,
  "32904": 8784,
  "##eonics": 8785,
  "roseville": 8786,
  "judetul": 8787,
  "frequently": 8788,
  "honolul": 8789,
  "improve": 8790,
  "1n2": 8791,
  "aleea": 8792,
  "cabrera": 8793,
  "kapashera": 8794,
  "kemble": 8795,
  "monsanto": 8796,
  "mclean": 8797,
  "nbfc": 8798,
  "osteonics": 8799,
  "vista": 8800,
  "anapamu": 8801,
  "shemesh": 8802,
  "manakoa": 8803,
  "howmedica": 8804,
  "timothy": 8805,
  "morristown": 8806,
  "woodlawn": 8807,
  "renaissance": 8808,
  "honolulu": 8809,
  "2210": 8810,
  "450": 8811,
  "534": 8812,
  "760": 8813,
  "7203": 8814,
  "901": 8815,
  "967": 8816,
  "ae": 8817,
  "fest": 8818,
  "hk": 8819,
  "haw": 8820,
  "kaya": 8821,
  "les": 8822,
  "mfa": 8823,
  "qing": 8824,
  "ram": 8825,
  "vacc": 8826,
  "yah": 8827,
  "yask": 8828,
  "zto": 8829,
  "##sight": 8830,
  "##iya": 8831,
  "##yra": 8832,
  "##fens": 8833,
  "##free": 8834,
  "##wai": 8835,
  "##kle": 8836,
  "##hase": 8837,
  "##horn": 8838,
  "##701": 8839,
  "thurs": 8840,
  "##esman": 8841,
  "##ism": 8842,
  "##elters": 8843,
  "##asiya": 8844,
  "exist": 8845,
  "##chutes": 8846,
  "##check": 8847,
  "206101": 8848,
  "conagra": 8849,
  "103": 8850,
  "1060": 8851,
  "1073": 8852,
  "anana": 8853,
  "##eman": 8854,
  "hapn": 8855,
  "pla": 8856,
  "resorts": 8857,
  "deschutes": 8858,
  "regions": 8859,
  "1133": 8860,
  "1135": 8861,
  "1113": 8862,
  "1171": 8863,
  "##oup": 8864,
  "1262": 8865,
  "12500": 8866,
  "newkle": 8867,
  "definiti": 8868,
  "1501": 8869,
  "15400": 8870,
  "##eek": 8871,
  "precheck": 8872,
  "schaa": 8873,
  "1735": 8874,
  "hobe": 8875,
  "188": 8876,
  "3025": 8877,
  "2406": 8878,
  "01601": 8879,
  "##065": 8880,
  "##060": 8881,
  "sanibel": 8882,
  "##newick": 8883,
  "9933": 8884,
  "parker": 8885,
  "20000": 8886,
  "professions": 8887,
  "2933": 8888,
  "2929": 8889,
  "##605": 8890,
  "audible": 8891,
  "20043": 8892,
  "33701": 8893,
  "33605": 8894,
  "0036": 8895,
  "9265": 8896,
  "computers": 8897,
  "##045": 8898,
  "##872": 8899,
  "remarketed": 8900,
  "372": 8901,
  "smelters": 8902,
  "walsh": 8903,
  "43107": 8904,
  "75248": 8905,
  "talesman": 8906,
  "77060": 8907,
  "mailing": 8908,
  "longhorn": 8909,
  "hatasiya": 8910,
  "huff": 8911,
  "rubio": 8912,
  "crm": 8913,
  "08065": 8914,
  "5004": 8915,
  "1059": 8916,
  "8920": 8917,
  "89108": 8918,
  "33455": 8919,
  "chemistry": 8920,
  "palmyra": 8921,
  "sunwai": 8922,
  "cybergy": 8923,
  "silicon": 8924,
  "2109": 8925,
  "##ographical": 8926,
  "billie": 8927,
  "78759": 8928,
  "1309": 8929,
  "stratton": 8930,
  "venturer": 8931,
  "tongze": 8932,
  "nanophase": 8933,
  "matthey": 8934,
  "kenrick": 8935,
  "kennewick": 8936,
  "knoll": 8937,
  "cheeseman": 8938,
  "prudential": 8939,
  "indemnitees": 8940,
  "7302": 8941,
  "ordinarily": 8942,
  "tampa": 8943,
  "havensight": 8944,
  "22102": 8945,
  "5348": 8946,
  "96768": 8947,
  "aeis": 8948,
  "hawaii": 8949,
  "ramat": 8950,
  "yaskawa": 8951,
  "##fenstr": 8952,
  "thursday": 8953,
  "hapnina": 8954,
  "11718": 8955,
  "12626": 8956,
  "newkleus": 8957,
  "schaafenstr": 8958,
  "99336": 8959,
  "2933045": 8960,
  "0036872": 8961,
  "92658": 8962,
  "3d": 8963,
  "361": 8964,
  "6044": 8965,
  "806": 8966,
  "ale": 8967,
  "beth": 8968,
  "bains": 8969,
  "cities": 8970,
  "ews": 8971,
  "fab": 8972,
  "heng": 8973,
  "ics": 8974,
  "kuro": 8975,
  "lg": 8976,
  "moss": 8977,
  "nida": 8978,
  "oll": 8979,
  "peek": 8980,
  "rusin": 8981,
  "sib": 8982,
  "ward": 8983,
  "yver": 8984,
  "yinch": 8985,
  "zhe": 8986,
  "ziva": 8987,
  "有限公司": 8988,
  "经纬": 8989,
  "##oit": 8990,
  "##oville": 8991,
  "##tong": 8992,
  "##sak": 8993,
  "##yus": 8994,
  "##wal": 8995,
  "##wane": 8996,
  "##hon": 8997,
  "##08": 8998,
  "##pu": 8999,
  "##jiang": 9000,
  "##767": 9001,
  "##785": 9002,
  "##经纬": 9003,
  "##通信": 9004,
  "##通科": 9005,
  "##技术": 9006,
  "##恒通科": 9007,
  "##esda": 9008,
  "##itv": 9009,
  "##anishi": 9010,
  "##atanishi": 9011,
  "touring": 9012,
  "##asota": 9013,
  "##tstrasse": 9014,
  "parame": 9015,
  "2021": 9016,
  "2081": 9017,
  "##esser": 9018,
  "##ersne": 9019,
  "##ageco": 9020,
  "living": 9021,
  "##meoville": 9022,
  "stageco": 9023,
  "hamb": 9024,
  "haup": 9025,
  "marqu": 9026,
  "produced": 9027,
  "##0081": 9028,
  "sphere": 9029,
  "transact": 9030,
  "lawren": 9031,
  "amt": 9032,
  "romeoville": 9033,
  "1319": 9034,
  "##romedia": 9035,
  "##imo": 9036,
  "##iminal": 9037,
  "##ivier": 9038,
  "1513": 9039,
  "##ishiro": 9040,
  "meas": 9041,
  "groupe": 9042,
  "1685": 9043,
  "1605": 9044,
  "obs": 9045,
  "175": 9046,
  "##costar": 9047,
  "##akyus": 9048,
  "emile": 9049,
  "attn": 9050,
  "telcostar": 9051,
  "0190": 9052,
  "##axin": 9053,
  "redding": 9054,
  "redwater": 9055,
  "norbert": 9056,
  "fuku": 9057,
  "enclosed": 9058,
  "##azhi": 9059,
  "0004": 9060,
  "advertisers": 9061,
  "297": 9062,
  "2908": 9063,
  "##annac": 9064,
  "258": 9065,
  "2560": 9066,
  "##oka": 9067,
  "##okwane": 9068,
  "10051": 9069,
  "differ": 9070,
  "edmond": 9071,
  "franchising": 9072,
  "twon": 9073,
  "twin": 9074,
  "##ud0081": 9075,
  "multip": 9076,
  "polokwane": 9077,
  "universal": 9078,
  "405": 9079,
  "43101": 9080,
  "##ecessor": 9081,
  "hsbc": 9082,
  "8099": 9083,
  "7500": 9084,
  "602": 9085,
  "tianan": 9086,
  "tianxi": 9087,
  "george": 9088,
  "cancun": 9089,
  "replaces": 9090,
  "huaxin": 9091,
  "huazhi": 9092,
  "criminal": 9093,
  "0689": 9094,
  "infinix": 9095,
  "kitakyus": 9096,
  "89118": 9097,
  "010767": 9098,
  "navasota": 9099,
  "rockledge": 9100,
  "guides": 9101,
  "##15ud0081": 9102,
  "657": 9103,
  "clickstream": 9104,
  "beyersne": 9105,
  "##vedate": 9106,
  "1902": 9107,
  "benoit": 9108,
  "6795": 9109,
  "winter": 9110,
  "taiwanese": 9111,
  "job": 9112,
  "taipei": 9113,
  "6903": 9114,
  "深圳经纬": 9115,
  "declared": 9116,
  "songshan": 9117,
  "01835": 9118,
  "5935": 9119,
  "predecessor": 9120,
  "effectivedate": 9121,
  "wright": 9122,
  "shuffling": 9123,
  "framework": 9124,
  "qingpu": 9125,
  "yahatanishi": 9126,
  "3611": 9127,
  "60446": 9128,
  "alex": 9129,
  "bethesda": 9130,
  "ewsd": 9131,
  "hengtong": 9132,
  "kurosak": 9133,
  "mossimo": 9134,
  "nidau": 9135,
  "ollivier": 9136,
  "rusinko": 9137,
  "sibannac": 9138,
  "yverdon": 9139,
  "yinchun": 9140,
  "zhejiang": 9141,
  "经纬恒通科": 9142,
  "##78506": 9143,
  "##通信技术": 9144,
  "parameus": 9145,
  "20817": 9146,
  "stagecoach": 9147,
  "hauptstrasse": 9148,
  "marquette": 9149,
  "lawrence": 9150,
  "151315ud0081": 9151,
  "##ishiroishi": 9152,
  "019036": 9153,
  "fukuoka": 9154,
  "edmonds": 9155,
  "4310178506": 9156,
  "tianxiang": 9157,
  "06896": 9158,
  "infinixsoft": 9159,
  "kitakyushu": 9160,
  "beyersnek": 9161,
  "深圳经纬通信技术": 9162,
  "kurosakishiroishi": 9163,
  "经纬恒通科技": 9164,
  "深圳经纬通信技术有限公司": 9165,
  "4ry": 9166,
  "488": 9167,
  "4703": 9168,
  "5b": 9169,
  "641": 9170,
  "895": 9171,
  "832": 9172,
  "cumber": 9173,
  "dun": 9174,
  "dav": 9175,
  "dick": 9176,
  "eu": 9177,
  "ira": 9178,
  "ike": 9179,
  "l3": 9180,
  "lag": 9181,
  "lunch": 9182,
  "niel": 9183,
  "sail": 9184,
  "tear": 9185,
  "tyl": 9186,
  "uen": 9187,
  "vs": 9188,
  "xy": 9189,
  "yam": 9190,
  "##riet": 9191,
  "##a7": 9192,
  "##ael": 9193,
  "##ien": 9194,
  "##gi": 9195,
  "##02": 9196,
  "##922": 9197,
  "##jo": 9198,
  "##ja": 9199,
  "##ertainment": 9200,
  "##erup": 9201,
  "##icorp": 9202,
  "##ecare": 9203,
  "##rop": 9204,
  "##ingdon": 9205,
  "##asp": 9206,
  "##ipark": 9207,
  "##aboth": 9208,
  "##lyans": 9209,
  "liens": 9210,
  "shav": 9211,
  "shores": 9212,
  "##veland": 9213,
  "sect": 9214,
  "adela": 9215,
  "##state": 9216,
  "##berna": 9217,
  "arc": 9218,
  "allstate": 9219,
  "##ogha": 9220,
  "##america": 9221,
  "##ighton": 9222,
  "markham": 9223,
  "intermark": 9224,
  "applies": 9225,
  "brighton": 9226,
  "collectible": 9227,
  "127": 9228,
  "1201": 9229,
  "132": 9230,
  "1360": 9231,
  "induc": 9232,
  "##ifund": 9233,
  "img": 9234,
  "explos": 9235,
  "17922": 9236,
  "1801": 9237,
  "2122": 9238,
  "oneamerica": 9239,
  "abingdon": 9240,
  "2450": 9241,
  "scien": 9242,
  "2320": 9243,
  "2750": 9244,
  "##708": 9245,
  "queen": 9246,
  "industripark": 9247,
  "lohas": 9248,
  "laogha": 9249,
  "##114": 9250,
  "ludm": 9251,
  "highland": 9252,
  "371": 9253,
  "##249": 9254,
  "ox14": 9255,
  "digicorp": 9256,
  "75703": 9257,
  "brewing": 9258,
  "94065": 9259,
  "32708": 9260,
  "supplemental": 9261,
  "munifund": 9262,
  "liquidated": 9263,
  "##comes": 9264,
  "packages": 9265,
  "##markets": 9266,
  "33431": 9267,
  "33314": 9268,
  "michael": 9269,
  "silas": 9270,
  "medica": 9271,
  "improved": 9272,
  "henriet": 9273,
  "potomac": 9274,
  "vitro": 9275,
  "ballerup": 9276,
  "update": 9277,
  "44114": 9278,
  "3800": 9279,
  "1707": 9280,
  "institutional": 9281,
  "85016": 9282,
  "menachem": 9283,
  "grows": 9284,
  "1903": 9285,
  "oxfordshire": 9286,
  "discretionary": 9287,
  "betasp": 9288,
  "78249": 9289,
  "pleased": 9290,
  "uniquest": 9291,
  "n3c2": 9292,
  "91360": 9293,
  "skilled": 9294,
  "combining": 9295,
  "shoreline": 9296,
  "uncoup": 9297,
  "33138": 9298,
  "14623": 9299,
  "mobilecare": 9300,
  "cleveland": 9301,
  "alausa": 9302,
  "comprising": 9303,
  "subordinated": 9304,
  "appendices": 9305,
  "immunoassays": 9306,
  "rando": 9307,
  "smolyans": 9308,
  "wearable": 9309,
  "17521": 9310,
  "4888": 9311,
  "5b4": 9312,
  "6414": 9313,
  "cumberland": 9314,
  "davie": 9315,
  "euromedia": 9316,
  "ikeja": 9317,
  "l3r": 9318,
  "lagos": 9319,
  "lunchtime": 9320,
  "nielsen": 9321,
  "tearaboth": 9322,
  "tyler": 9323,
  "ueno": 9324,
  "xyberna": 9325,
  "yamato": 9326,
  "shavano": 9327,
  "adelaide": 9328,
  "industriparken": 9329,
  "laoghaire": 9330,
  "ludmila": 9331,
  "henrietta": 9332,
  "n3c2a7": 9333,
  "uncoupled": 9334,
  "smolyansky": 9335,
  "xybernaut": 9336,
  "3pl": 9337,
  "414": 9338,
  "better": 9339,
  "c20": 9340,
  "clot": 9341,
  "c210": 9342,
  "dies": 9343,
  "fos": 9344,
  "feb": 9345,
  "gun": 9346,
  "mti": 9347,
  "mco": 9348,
  "pets": 9349,
  "tenta": 9350,
  "uq": 9351,
  "wel": 9352,
  "##la": 9353,
  "##aign": 9354,
  "##ditv": 9355,
  "##kes": 9356,
  "##ntague": 9357,
  "##itditv": 9358,
  "##anhe": 9359,
  "##alist": 9360,
  "coff": 9361,
  "##etrol": 9362,
  "exit": 9363,
  "##orporation": 9364,
  "##abi": 9365,
  "##emasm": 9366,
  "##opetrol": 9367,
  "dissol": 9368,
  "##achtree": 9369,
  "princor": 9370,
  "marking": 9371,
  "transmont": 9372,
  "##otal": 9373,
  "lear": 9374,
  "inde": 9375,
  "##apy": 9376,
  "sykes": 9377,
  "montague": 9378,
  "expend": 9379,
  "182": 9380,
  "budg": 9381,
  "coral": 9382,
  "3032": 9383,
  "alton": 9384,
  "medalist": 9385,
  "24t": 9386,
  "##aceuticals": 9387,
  "26t": 9388,
  "coopera": 9389,
  "citynet": 9390,
  "peachtree": 9391,
  "353": 9392,
  "3350": 9393,
  "3003": 9394,
  "oakton": 9395,
  "##omedics": 9396,
  "##131": 9397,
  "60053": 9398,
  "specialists": 9399,
  "golfers": 9400,
  "95131": 9401,
  "complehon": 9402,
  "hatch": 9403,
  "60602": 9404,
  "realty": 9405,
  "huanhe": 9406,
  "morton": 9407,
  "90291": 9408,
  "immunomedics": 9409,
  "bookingent": 9410,
  "eurocin": 9411,
  "xinwei": 9412,
  "xinyu": 9413,
  "removed": 9414,
  "exploring": 9415,
  "pivotal": 9416,
  "fnma": 9417,
  "c218": 9418,
  "c214": 9419,
  "c213": 9420,
  "c217": 9421,
  "ccgi": 9422,
  "ecopetrol": 9423,
  "earthqu": 9424,
  "6431": 9425,
  "enabler": 9426,
  "vendingdata": 9427,
  "33139": 9428,
  "penthouse": 9429,
  "nutraceuticals": 9430,
  "tlp": 9431,
  "xxxxxxxxxxxxxxxxx": 9432,
  "inducement": 9433,
  "4143": 9434,
  "c209": 9435,
  "clotamin": 9436,
  "foster": 9437,
  "gunston": 9438,
  "tentatively": 9439,
  "uqitditv": 9440,
  "##aigne": 9441,
  "transmontaigne": 9442,
  "30326": 9443,
  "cooperatively": 9444,
  "bookingentertainment": 9445,
  "eurocinemasm": 9446,
  "061": 9447,
  "4a": 9448,
  "4gr": 9449,
  "461": 9450,
  "634": 9451,
  "6gp": 9452,
  "6429": 9453,
  "cres": 9454,
  "dh": 9455,
  "fce": 9456,
  "giron": 9457,
  "ich": 9458,
  "kg": 9459,
  "kar": 9460,
  "kag": 9461,
  "kaz": 9462,
  "rg": 9463,
  "rud": 9464,
  "tustin": 9465,
  "yang": 9466,
  "北京": 9467,
  "##t102": 9468,
  "##lt": 9469,
  "##lock": 9470,
  "##lfur": 9471,
  "##cent": 9472,
  "##mad": 9473,
  "##pi": 9474,
  "##670": 9475,
  "##780": 9476,
  "##xville": 9477,
  "##qiao": 9478,
  "##信息": 9479,
  "##新浪": 9480,
  "##互联": 9481,
  "##服务": 9482,
  "##rexon": 9483,
  "##orism": 9484,
  "andy": 9485,
  "toky": 9486,
  "##iday": 9487,
  "compil": 9488,
  "sulfur": 9489,
  "intrexon": 9490,
  "##ffmf": 9491,
  "##igaya": 9492,
  "##abama": 9493,
  "liou": 9494,
  "noc": 9495,
  "##ops": 9496,
  "secor": 9497,
  "##omfield": 9498,
  "##acho": 9499,
  "##irical": 9500,
  "interlock": 9501,
  "filer": 9502,
  "##armaceutical": 9503,
  "11311": 9504,
  "friday": 9505,
  "1267": 9506,
  "14661": 9507,
  "##ishment": 9508,
  "16t": 9509,
  "18301": 9510,
  "##akud": 9511,
  "##akho": 9512,
  "abu": 9513,
  "alps": 9514,
  "almad": 9515,
  "alabama": 9516,
  "##066": 9517,
  "##2171": 9518,
  "floods": 9519,
  "redactions": 9520,
  "2376": 9521,
  "3150": 9522,
  "275": 9523,
  "saale": 9524,
  "brook": 9525,
  "broomfield": 9526,
  "quoted": 9527,
  "##lett": 9528,
  "29th": 9529,
  "industriel": 9530,
  "logic": 9531,
  "25th": 9532,
  "2501": 9533,
  "boxes": 9534,
  "avraham": 9535,
  "3590": 9536,
  "ipa": 9537,
  "##hud": 9538,
  "92780": 9539,
  "##22t102": 9540,
  "wirefree": 9541,
  "refurb": 9542,
  "37919": 9543,
  "bluchers": 9544,
  "95118": 9545,
  "95670": 9546,
  "##munay": 9547,
  "##everg": 9548,
  "longwater": 9549,
  "antenn": 9550,
  "##juku": 9551,
  "90071": 9552,
  "semiconductors": 9553,
  "3965": 9554,
  "immunother": 9555,
  "offshorelt": 9556,
  "reading": 9557,
  "57th": 9558,
  "biopharmaceutical": 9559,
  "thousands": 9560,
  "94402": 9561,
  "primeeverg": 9562,
  "fixins": 9563,
  "jvls": 9564,
  "peyton": 9565,
  "famous": 9566,
  "empirical": 9567,
  "80021": 9568,
  "10107": 9569,
  "terrorism": 9570,
  "otcmarkets": 9571,
  "franklin": 9572,
  "frankfur": 9573,
  "labeled": 9574,
  "veteran": 9575,
  "77079": 9576,
  "##ukmunay": 9577,
  "halle": 9578,
  "shinjuku": 9579,
  "sensing": 9580,
  "borrowmoney": 9581,
  "pvss": 9582,
  "rentals": 9583,
  "knoxville": 9584,
  "identifying": 9585,
  "77002": 9586,
  "psitech": 9587,
  "yehud": 9588,
  "amphlett": 9589,
  "562171": 9590,
  "vaccines": 9591,
  "diesel": 9592,
  "welcomes": 9593,
  "coffshore": 9594,
  "learning": 9595,
  "budget": 9596,
  "earthquakes": 9597,
  "xxxxxxxxxxxxxxxxxxxxx": 9598,
  "06120": 9599,
  "4grffmf": 9600,
  "46122t102": 9601,
  "64293": 9602,
  "crescent": 9603,
  "dhabi": 9604,
  "ichigaya": 9605,
  "karakud": 9606,
  "kagacho": 9607,
  "kazakho": 9608,
  "rg2": 9609,
  "rudder": 9610,
  "yangqiao": 9611,
  "北京新浪": 9612,
  "##信息服务": 9613,
  "##互联信息服务": 9614,
  "tokyo": 9615,
  "lioudm": 9616,
  "interlocken": 9617,
  "11311066": 9618,
  "almaden": 9619,
  "brookfield": 9620,
  "industrielle": 9621,
  "blucherstr": 9622,
  "antennas": 9623,
  "immunotherapy": 9624,
  "frankfurter": 9625,
  "5621717": 9626,
  "4grffmfst": 9627,
  "karakudukmunay": 9628,
  "kazakhoil": 9629,
  "北京新浪互联信息服务": 9630,
  "北京新浪互联信息服务有限公司": 9631,
  "2go": 9632,
  "480": 9633,
  "724": 9634,
  "97": 9635,
  "934": 9636,
  "bv": 9637,
  "fuse": 9638,
  "fires": 9639,
  "hig": 9640,
  "hc2": 9641,
  "putter": 9642,
  "rak": 9643,
  "sms": 9644,
  "w3": 9645,
  "##nio": 9646,
  "##nard": 9647,
  "##iesser": 9648,
  "##bell": 9649,
  "##kov": 9650,
  "##hd": 9651,
  "##him": 9652,
  "##mans": 9653,
  "##810": 9654,
  "##4a": 9655,
  "##43": 9656,
  "##uera": 9657,
  "##18": 9658,
  "##606": 9659,
  "thim": 9660,
  "##oni": 9661,
  "##rene": 9662,
  "##orama": 9663,
  "##angan": 9664,
  "##ispo": 9665,
  "colom": 9666,
  "agreement30": 9667,
  "##ation23": 9668,
  "probe": 9669,
  "isl": 9670,
  "suwan": 9671,
  "congress": 9672,
  "1028": 9673,
  "##009": 9674,
  "changan": 9675,
  "nebr": 9676,
  "##veroni": 9677,
  "20095": 9678,
  "development11": 9679,
  "1151": 9680,
  "unicor": 9681,
  "liability34": 9682,
  "leveroni": 9683,
  "strik": 9684,
  "indorama": 9685,
  "grant10": 9686,
  "##jected": 9687,
  "property24": 9688,
  "supply17": 9689,
  "obispo": 9690,
  "exposure": 9691,
  "##ockeng": 9692,
  "##erical": 9693,
  "2165": 9694,
  "clerical": 9695,
  "23606": 9696,
  "3113": 9697,
  "covenants32": 9698,
  "bascom": 9699,
  "94949": 9700,
  "lifeusa": 9701,
  "enc": 9702,
  "provisions20": 9703,
  "provisions43": 9704,
  "guild": 9705,
  "commercialization18": 9706,
  "10073": 9707,
  "integrative": 9708,
  "confidentiality30": 9709,
  "luis": 9710,
  "revolutions": 9711,
  "activities14": 9712,
  "30024": 9713,
  "92009": 9714,
  "taxation23": 9715,
  "4060": 9716,
  "interpretation1": 9717,
  "512": 9718,
  "4071": 9719,
  "audited": 9720,
  "##bekov": 9721,
  "95008": 9722,
  "glockeng": 9723,
  "subcontractors": 9724,
  "governance35": 9725,
  "georges": 9726,
  "monocl": 9727,
  "msl": 9728,
  "##hood": 9729,
  "disease": 9730,
  "bayshore": 9731,
  "##hcorporation": 9732,
  "33304": 9733,
  "3rdfl": 9734,
  "92618": 9735,
  "astana": 9736,
  "barnard": 9737,
  "novato": 9738,
  "ballinger": 9739,
  "solicitation37": 9740,
  "victory": 9741,
  "latina": 9742,
  "portfolios": 9743,
  "shoals": 9744,
  "11440": 9745,
  "92014": 9746,
  "typographical": 9747,
  "subadvisor": 9748,
  "subadvisory": 9749,
  "416": 9750,
  "campbell": 9751,
  "psitechcorporation": 9752,
  "12868": 9753,
  "invasix": 9754,
  "2809": 9755,
  "3026": 9756,
  "5701810": 9757,
  "hartford": 9758,
  "functionality": 9759,
  "survive": 9760,
  "34990": 9761,
  "hamburg": 9762,
  "explosions": 9763,
  "dissolved": 9764,
  "refurbishment": 9765,
  "93401": 9766,
  "bvtk": 9767,
  "higuera": 9768,
  "rakhim": 9769,
  "smsa": 9770,
  "##iesserwall": 9771,
  "thimble": 9772,
  "colomb": 9773,
  "suwanee": 9774,
  "10281": 9775,
  "nebraska": 9776,
  "unicornio": 9777,
  "strikes": 9778,
  "100738": 9779,
  "40715": 9780,
  "glockengiesserwall": 9781,
  "monoclonal": 9782,
  "barnardo": 9783,
  "rakhimbekov": 9784,
  "221": 9785,
  "533": 9786,
  "587": 9787,
  "699": 9788,
  "732": 9789,
  "980": 9790,
  "buck": 9791,
  "baker": 9792,
  "eli": 9793,
  "fay": 9794,
  "fow": 9795,
  "fetter": 9796,
  "gm": 9797,
  "ns": 9798,
  "npi": 9799,
  "pep": 9800,
  "que": 9801,
  "rale": 9802,
  "tig": 9803,
  "tavor": 9804,
  "wbls": 9805,
  "##oorn": 9806,
  "##top": 9807,
  "##nand": 9808,
  "##fac": 9809,
  "##dro": 9810,
  "##bon": 9811,
  "##bec": 9812,
  "##bie": 9813,
  "##pers": 9814,
  "##uan": 9815,
  "##refac": 9816,
  "##rebon": 9817,
  "of1": 9818,
  "##isdale": 9819,
  "intake": 9820,
  "10t": 9821,
  "##tiesʺ": 9822,
  "terrebon": 9823,
  "##tyʺ": 9824,
  "acn": 9825,
  "##stla": 9826,
  "argy": 9827,
  "arte": 9828,
  "1920": 9829,
  "##clays": 9830,
  "1150": 9831,
  "frisco": 9832,
  "pursuing": 9833,
  "1565": 9834,
  "prevention": 9835,
  "strategy": 9836,
  "##ritos": 9837,
  "goals": 9838,
  "exclusions": 9839,
  "2120": 9840,
  "consultations": 9841,
  "redmond": 9842,
  "norwal": 9843,
  "centr": 9844,
  "27601": 9845,
  "9459": 9846,
  "modus": 9847,
  "##eldoorn": 9848,
  "2591": 9849,
  "loisdale": 9850,
  "apeldoorn": 9851,
  "hilltop": 9852,
  "poitr": 9853,
  "##226": 9854,
  "##545": 9855,
  "mcken": 9856,
  "harbour": 9857,
  "##cafe": 9858,
  "inventor": 9859,
  "torrefac": 9860,
  "##etteville": 9861,
  "fernand": 9862,
  "prescafe": 9863,
  "mediaco": 9864,
  "conducts": 9865,
  "medicinal": 9866,
  "barclays": 9867,
  "6564": 9868,
  "94103": 9869,
  "75034": 9870,
  "75080": 9871,
  "rivera": 9872,
  "shaq": 9873,
  "shaar": 9874,
  "robbie": 9875,
  "springfield": 9876,
  "1010b": 9877,
  "7405": 9878,
  "3208": 9879,
  "ec4a": 9880,
  "laboratorios": 9881,
  "07974": 9882,
  "loco®": 9883,
  "speakers": 9884,
  "76226": 9885,
  "revisions": 9886,
  "702": 9887,
  "landdro": 9888,
  "12890": 9889,
  "ʺpartiesʺ": 9890,
  "ʺpartyʺ": 9891,
  "1jp": 9892,
  "068545": 9893,
  "33068": 9894,
  "eligibility": 9895,
  "counseling": 9896,
  "sirius": 9897,
  "colombia": 9898,
  "22150": 9899,
  "7327": 9900,
  "98052": 9901,
  "eliance": 9902,
  "fayetteville": 9903,
  "fowler": 9904,
  "nsw": 9905,
  "pepco": 9906,
  "quebec": 9907,
  "raleigh": 9908,
  "tigrent": 9909,
  "terrebonne": 9910,
  "##stlaan": 9911,
  "argyle": 9912,
  "1565n": 9913,
  "norwalk": 9914,
  "94596": 9915,
  "poitras": 9916,
  "torrefacao": 9917,
  "landdrostlaan": 9918,
  "1de": 9919,
  "466": 9920,
  "7j": 9921,
  "830": 9922,
  "bog": 9923,
  "din": 9924,
  "duck": 9925,
  "gocl": 9926,
  "hp": 9927,
  "ired": 9928,
  "som": 9929,
  "sagem": 9930,
  "sl1": 9931,
  "vl": 9932,
  "vere": 9933,
  "xiv": 9934,
  "##nac": 9935,
  "##iven": 9936,
  "##iend": 9937,
  "##zind": 9938,
  "##hann": 9939,
  "##more": 9940,
  "##ery": 9941,
  "##ntford": 9942,
  "##entic": 9943,
  "##esburg": 9944,
  "##atz": 9945,
  "##ech": 9946,
  "##elou": 9947,
  "##ingham": 9948,
  "isles": 9949,
  "competing": 9950,
  "##send": 9951,
  "##ersedge": 9952,
  "##ol®": 9953,
  "onq": 9954,
  "stans": 9955,
  "bend": 9956,
  "adhd": 9957,
  "margin": 9958,
  "mani": 9959,
  "manor": 9960,
  "##achou": 9961,
  "##quille": 9962,
  "purinix": 9963,
  "neal": 9964,
  "cerritos": 9965,
  "##illips": 9966,
  "mazind": 9967,
  "friend": 9968,
  "phillips": 9969,
  "1345": 9970,
  "##ardrop": 9971,
  "##013": 9972,
  "1680": 9973,
  "##riters": 9974,
  "expires": 9975,
  "valence": 9976,
  "2170": 9977,
  "solana": 9978,
  "scient": 9979,
  "27t": 9980,
  "##platz": 9981,
  "authentic": 9982,
  "##702": 9983,
  "##azol®": 9984,
  "quaker": 9985,
  "##lesex": 9986,
  "##netplus": 9987,
  "29928": 9988,
  "##603": 9989,
  "027": 9990,
  "teardrop": 9991,
  "tw8": 9992,
  "003": 9993,
  "3465": 9994,
  "hotapp": 9995,
  "yournetplus": 9996,
  "watersedge": 9997,
  "brentford": 9998,
  "6052": 9999,
  "04603": 10000,
  "gridley": 10001,
  "midwest": 10002,
  "400013": 10003,
  "parel": 10004,
  "051": 10005,
  "90703": 10006,
  "underwriters": 10007,
  "##valu": 10008,
  "townsend": 10009,
  "899": 10010,
  "##ioration": 10011,
  "entrance": 10012,
  "11120": 10013,
  "conducting": 10014,
  "##merville": 10015,
  "6370": 10016,
  "94107": 10017,
  "angelou": 10018,
  "shaquille": 10019,
  "postplatz": 10020,
  "departement": 10021,
  "je1": 10022,
  "helier": 10023,
  "shelter": 10024,
  "consolidation": 10025,
  "johann": 10026,
  "middlesex": 10027,
  "candidate": 10028,
  "301373": 10029,
  "53702": 10030,
  "nolazol®": 10031,
  "burnham": 10032,
  "4544": 10033,
  "tumaco": 10034,
  "larnac": 10035,
  "kamala": 10036,
  "generations": 10037,
  "fairland": 10038,
  "pharmaceutics": 10039,
  "buckingham": 10040,
  "centrack": 10041,
  "46635": 10042,
  "7jt": 10043,
  "bogota": 10044,
  "diniz": 10045,
  "duckwall": 10046,
  "hpil": 10047,
  "iredell": 10048,
  "sommerville": 10049,
  "vlachou": 10050,
  "vereador": 10051,
  "mazindol": 10052,
  "friendly": 10053,
  "16804": 10054,
  "scientific": 10055,
  "johannesburg": 10056,
  "larnaca": 10057,
  "buckinghamshire": 10058,
  "btd": 10059,
  "ccr": 10060,
  "evalu": 10061,
  "ler": 10062,
  "r1": 10063,
  "xuan": 10064,
  "##toria": 10065,
  "##tech": 10066,
  "##lord": 10067,
  "##hman": 10068,
  "##harma": 10069,
  "##mab": 10070,
  "##84": 10071,
  "##uila": 10072,
  "##jian": 10073,
  "thres": 10074,
  "##onli": 10075,
  "aguila": 10076,
  "##elioration": 10077,
  "##rose": 10078,
  "proes": 10079,
  "##thers": 10080,
  "##ipharma": 10081,
  "##006": 10082,
  "##therhood": 10083,
  "resist": 10084,
  "amelioration": 10085,
  "pursuit": 10086,
  "lehman": 10087,
  "152": 10088,
  "pretoria": 10089,
  "ital": 10090,
  "1994": 10091,
  "1733": 10092,
  "excusable": 10093,
  "##ghou": 10094,
  "able": 10095,
  "alan": 10096,
  "disclaim": 10097,
  "9484": 10098,
  "brothers": 10099,
  "brotherhood": 10100,
  "energytech": 10101,
  "ensure": 10102,
  "shippers": 10103,
  "recordal": 10104,
  "10019": 10105,
  "changjian": 10106,
  "952": 10107,
  "sublicensees": 10108,
  "replace": 10109,
  "crane": 10110,
  "33432": 10111,
  "humanized": 10112,
  "lutheran": 10113,
  "holders": 10114,
  "facilitate": 10115,
  "preparing": 10116,
  "journals": 10117,
  "molipharma": 10118,
  "southeast": 10119,
  "elsewhere": 10120,
  "observ": 10121,
  "multiplied": 10122,
  "9773": 10123,
  "btds": 10124,
  "ccr5": 10125,
  "leronli": 10126,
  "r1006": 10127,
  "xuanwu": 10128,
  "threshold": 10129,
  "resistant": 10130,
  "changjianghou": 10131,
  "leronlimab": 10132,
  "4m": 10133,
  "710": 10134,
  "gin": 10135,
  "gsi": 10136,
  "hano": 10137,
  "lic": 10138,
  "tf": 10139,
  "yong": 10140,
  "##925": 10141,
  "##orized": 10142,
  "##anie": 10143,
  "inge": 10144,
  "##roe": 10145,
  "excl": 10146,
  "reim": 10147,
  "2050": 10148,
  "withhol": 10149,
  "1045": 10150,
  "##stal": 10151,
  "neil": 10152,
  "bridg": 10153,
  "therefor": 10154,
  "21925": 10155,
  "centers": 10156,
  "westroc": 10157,
  "2500": 10158,
  "transactional": 10159,
  "5190": 10160,
  "consumm": 10161,
  "v6e": 10162,
  "personalized": 10163,
  "monroe": 10164,
  "packaged": 10165,
  "8942": 10166,
  "89502": 10167,
  "naturals": 10168,
  "916": 10169,
  "annually": 10170,
  "minden": 10171,
  "reno": 10172,
  "enabling": 10173,
  "stephanie": 10174,
  "unauth": 10175,
  "voluntarily": 10176,
  "rolled": 10177,
  "blending": 10178,
  "10950": 10179,
  "dilig": 10180,
  "4m3": 10181,
  "ginares": 10182,
  "hanover": 10183,
  "ingevity": 10184,
  "withholding": 10185,
  "bridging": 10186,
  "westrock": 10187,
  "89423": 10188,
  "1v": 10189,
  "1l1": 10190,
  "523": 10191,
  "ment": 10192,
  "ridg": 10193,
  "##ged": 10194,
  "##haw": 10195,
  "##person": 10196,
  "##261": 10197,
  "##495": 10198,
  "##uet": 10199,
  "##706": 10200,
  "##reted": 10201,
  "##alon": 10202,
  "##etop": 10203,
  "1095": 10204,
  "##aby": 10205,
  "bearing": 10206,
  "disse": 10207,
  "businessperson": 10208,
  "arrow": 10209,
  "driven": 10210,
  "scha": 10211,
  "21495": 10212,
  "carson": 10213,
  "saver": 10214,
  "2975": 10215,
  "20166": 10216,
  "avalon": 10217,
  "acknowledgment": 10218,
  "offs": 10219,
  "03261": 10220,
  "oxy": 10221,
  "privately": 10222,
  "nanuet": 10223,
  "possible": 10224,
  "releases": 10225,
  "disputes": 10226,
  "joseph": 10227,
  "89706": 10228,
  "flemington": 10229,
  "07087": 10230,
  "understanding": 10231,
  "v5a": 10232,
  "v5m": 10233,
  "weehaw": 10234,
  "7860": 10235,
  "gardens": 10236,
  "factory": 10237,
  "search": 10238,
  "304a": 10239,
  "burnaby": 10240,
  "actually": 10241,
  "08822": 10242,
  "hipaa": 10243,
  "compiles": 10244,
  "italian": 10245,
  "unauthorized": 10246,
  "1v3": 10247,
  "ridgetop": 10248,
  "10954": 10249,
  "arrowhead": 10250,
  "032619": 10251,
  "weehawken": 10252,
  "4j": 10253,
  "481": 10254,
  "5k": 10255,
  "fg": 10256,
  "n11": 10257,
  "oel": 10258,
  "secti": 10259,
  "w1": 10260,
  "##eong": 10261,
  "##ystem": 10262,
  "##dong": 10263,
  "##460": 10264,
  "##ung": 10265,
  "##uyl": 10266,
  "##jeong": 10267,
  "##itas": 10268,
  "##anim": 10269,
  "##that": 10270,
  "##aga": 10271,
  "contest": 10272,
  "step": 10273,
  "delte": 10274,
  "marley": 10275,
  "margar": 10276,
  "ches": 10277,
  "19460": 10278,
  "unanim": 10279,
  "requests": 10280,
  "bojeong": 10281,
  "1440": 10282,
  "14615": 10283,
  "commissions": 10284,
  "schuyl": 10285,
  "holder": 10286,
  "solaga": 10287,
  "webinars": 10288,
  "2400": 10289,
  "312": 10290,
  "collaborating": 10291,
  "worksh": 10292,
  "save": 10293,
  "succeed": 10294,
  "interpreted": 10295,
  "##6770": 10296,
  "##geni": 10297,
  "##heung": 10298,
  "deposits": 10299,
  "metal": 10300,
  "recipients": 10301,
  "skymark": 10302,
  "giheung": 10303,
  "phoenixville": 10304,
  "##ruption": 10305,
  "agreeme": 10306,
  "macrogeni": 10307,
  "##globin": 10308,
  "446770": 10309,
  "occur": 10310,
  "andrew": 10311,
  "prospects": 10312,
  "l4w": 10313,
  "truckthat": 10314,
  "authentication": 10315,
  "yongin": 10316,
  "oxyglobin": 10317,
  "4jl": 10318,
  "5k5": 10319,
  "n115": 10320,
  "w1s": 10321,
  "delteq": 10322,
  "margaritas": 10323,
  "bojeongdong": 10324,
  "schuylkill": 10325,
  "workshops": 10326,
  "giheunggu": 10327,
  "cinc": 10328,
  "hay": 10329,
  "lanc": 10330,
  "ong": 10331,
  "pit": 10332,
  "ri": 10333,
  "sent": 10334,
  "wuth": 10335,
  "yose": 10336,
  "##oing": 10337,
  "##scription": 10338,
  "##sley": 10339,
  "##nati": 10340,
  "##ders": 10341,
  "##wyn": 10342,
  "##cill": 10343,
  "##innati": 10344,
  "##itworth": 10345,
  "coaching": 10346,
  "##elam": 10347,
  "##asmin": 10348,
  "##uriz": 10349,
  "##idence": 10350,
  "rehov": 10351,
  "whitworth": 10352,
  "ancill": 10353,
  "servi": 10354,
  "##mei": 10355,
  "entrep": 10356,
  "train": 10357,
  "marsh": 10358,
  "margate": 10359,
  "##osystem": 10360,
  "resc": 10361,
  "##iriva": 10362,
  "confidence": 10363,
  "chocol": 10364,
  "chiriva": 10365,
  "rechov": 10366,
  "mauriz": 10367,
  "bray": 10368,
  "1125": 10369,
  "##ubscription": 10370,
  "phd": 10371,
  "##ival": 10372,
  "internati": 10373,
  "relates": 10374,
  "none": 10375,
  "##orships": 10376,
  "1601": 10377,
  "expanding": 10378,
  "terminating": 10379,
  "1720": 10380,
  "18401": 10381,
  "215": 10382,
  "geno": 10383,
  "2451": 10384,
  "carmei": 10385,
  "##069": 10386,
  "copans": 10387,
  "265": 10388,
  "2650": 10389,
  "##umberg": 10390,
  "divid": 10391,
  "edible": 10392,
  "berwyn": 10393,
  "60173": 10394,
  "##enges": 10395,
  "ilsley": 10396,
  "##holder": 10397,
  "10018": 10398,
  "5100": 10399,
  "75069": 10400,
  "mckin": 10401,
  "shareholders": 10402,
  "33401": 10403,
  "rocky": 10404,
  "##urship": 10405,
  "circul": 10406,
  "45202": 10407,
  "ecosystem": 10408,
  "hamada": 10409,
  "oversubscription": 10410,
  "supervision": 10411,
  "spokesperson": 10412,
  "##brook": 10413,
  "33063": 10414,
  "crystal": 10415,
  "middlebrook": 10416,
  "domestically": 10417,
  "##reneurship": 10418,
  "mentorships": 10419,
  "disseminating": 10420,
  "schaumberg": 10421,
  "sectio": 10422,
  "cincinnati": 10423,
  "hayasmin": 10424,
  "lancaster": 10425,
  "ongoing": 10426,
  "wuthelam": 10427,
  "yosef": 10428,
  "rehovot": 10429,
  "ancillary": 10430,
  "entrepreneurship": 10431,
  "marshall": 10432,
  "chocolate": 10433,
  "maurizio": 10434,
  "mckinney": 10435,
  "762": 10436,
  "7377": 10437,
  "ctc": 10438,
  "gay": 10439,
  "gps": 10440,
  "jf": 10441,
  "kier": 10442,
  "tah": 10443,
  "##tord": 10444,
  "##lia": 10445,
  "##yad": 10446,
  "##kni": 10447,
  "##801": 10448,
  "ashe": 10449,
  "prob": 10450,
  "##tsfield": 10451,
  "10d": 10452,
  "dea": 10453,
  "bear": 10454,
  "arts": 10455,
  "confection": 10456,
  "19103": 10457,
  "recall": 10458,
  "fru": 10459,
  "##irect": 10460,
  "accom": 10461,
  "1464": 10462,
  "forthwith": 10463,
  "doctord": 10464,
  "1617": 10465,
  "01210": 10466,
  "28801": 10467,
  "##letree": 10468,
  "penn": 10469,
  "loy": 10470,
  "tekni": 10471,
  "steve": 10472,
  "specializes": 10473,
  "published": 10474,
  "10485": 10475,
  "insureds": 10476,
  "11433": 10477,
  "corresponding": 10478,
  "85258": 10479,
  "85254": 10480,
  "doubletree": 10481,
  "arabia": 10482,
  "saudi": 10483,
  "pittsfield": 10484,
  "riyad": 10485,
  "76262": 10486,
  "ctcs": 10487,
  "gaylord": 10488,
  "jfk": 10489,
  "kierland": 10490,
  "tahlia": 10491,
  "asheville": 10492,
  "confectionery": 10493,
  "##irectory": 10494,
  "14646": 10495,
  "doctordirectory": 10496,
  "teknik": 10497,
  "riyadh": 10498,
  "bod": 10499,
  "hire": 10500,
  "pan": 10501,
  "worship": 10502,
  "##pan": 10503,
  "##ora": 10504,
  "injected": 10505,
  "exhibition": 10506,
  "ads": 10507,
  "15t": 10508,
  "indef": 10509,
  "incorporati": 10510,
  "correct": 10511,
  "elected": 10512,
  "marketplace": 10513,
  "variations": 10514,
  "personality": 10515,
  "importation": 10516,
  "duplication": 10517,
  "injur": 10518,
  "combination": 10519,
  "cannot": 10520,
  "songs": 10521,
  "invasive": 10522,
  "indefin": 10523,
  "leng": 10524,
  "runs": 10525,
  "##itions": 10526,
  "##ml": 10527,
  "##orum": 10528,
  "##ropri": 10529,
  "##portion": 10530,
  "mancha": 10531,
  "referre": 10532,
  "recurrent": 10533,
  "definitional": 10534,
  "insol": 10535,
  "##astatic": 10536,
  "covenan": 10537,
  "idn": 10538,
  "enrich": 10539,
  "verification": 10540,
  "quorum": 10541,
  "describe": 10542,
  "metastatic": 10543,
  "cancers": 10544,
  "ready": 10545,
  "declar": 10546,
  "tumor": 10547,
  "different": 10548,
  "observers": 10549,
  "offset": 10550,
  "unanimou": 10551,
  "rescission": 10552,
  "circulating": 10553,
  "bodily": 10554,
  "length": 10555,
  "enrichment": 10556,
  "545": 10557,
  "ak": 10558,
  "hun": 10559,
  "nda": 10560,
  "##scha": 10561,
  "##fr": 10562,
  "##tienges": 10563,
  "##aning": 10564,
  "compar": 10565,
  "##anth": 10566,
  "lif": 10567,
  "##ellscha": 10568,
  "##andon": 10569,
  "robert": 10570,
  "boyl": 10571,
  "calif": 10572,
  "abandon": 10573,
  "election": 10574,
  "versions": 10575,
  "module": 10576,
  "verb": 10577,
  "indepen": 10578,
  "operator7": 10579,
  "records12": 10580,
  "misapp": 10581,
  "instrumentation": 10582,
  "negotiated": 10583,
  "cleaning": 10584,
  "measurement": 10585,
  "disclaimers": 10586,
  "##ropriation": 10587,
  "aktienges": 10588,
  "hunan": 10589,
  "##ellschaft": 10590,
  "boylston": 10591,
  "misappropriation": 10592,
  "aktiengesellschaft": 10593,
  "8001": 10594,
  "bk": 10595,
  "c04": 10596,
  "find": 10597,
  "harding": 10598,
  "pike": 10599,
  "tay": 10600,
  "##e®": 10601,
  "##nif": 10602,
  "##imental": 10603,
  "##knif": 10604,
  "##esciences": 10605,
  "cowan": 10606,
  "inn": 10607,
  "inve": 10608,
  "##eters": 10609,
  "##ura": 10610,
  "param": 10611,
  "concept": 10612,
  "noah": 10613,
  "effort": 10614,
  "##ulas": 10615,
  "##amura": 10616,
  "region": 10617,
  "##visible": 10618,
  "1310": 10619,
  "capabili": 10620,
  "##205": 10621,
  "driver": 10622,
  "1706": 10623,
  "2121": 10624,
  "assigning": 10625,
  "2695": 10626,
  "webster": 10627,
  "activit": 10628,
  "successfully": 10629,
  "complied": 10630,
  "berlin": 10631,
  "##873": 10632,
  "37205": 10633,
  "aurora": 10634,
  "##apeake": 10635,
  "depository": 10636,
  "80210": 10637,
  "privacy": 10638,
  "munich": 10639,
  "cyberknif": 10640,
  "okamura": 10641,
  "94089": 10642,
  "guided": 10643,
  "3801": 10644,
  "robotic": 10645,
  "cannulas": 10646,
  "radiosurgery": 10647,
  "discontinue": 10648,
  "emergencies": 10649,
  "russell": 10650,
  "roundup": 10651,
  "chesapeake": 10652,
  "probinson": 10653,
  "accompan": 10654,
  "comparable": 10655,
  "lifesciences": 10656,
  "verbal": 10657,
  "80014": 10658,
  "bkc": 10659,
  "c04873": 10660,
  "taylor": 10661,
  "parameters": 10662,
  "21218": 10663,
  "cyberknife®": 10664,
  "dim": 10665,
  "dwy": 10666,
  "fi": 10667,
  "ht": 10668,
  "past": 10669,
  "ting": 10670,
  "word": 10671,
  "wai": 10672,
  "##tel": 10673,
  "##fro": 10674,
  "##lying": 10675,
  "1980": 10676,
  "placeholder": 10677,
  "representation": 10678,
  "##axanth": 10679,
  "aup": 10680,
  "status": 10681,
  "meridian": 10682,
  "##ept": 10683,
  "analy": 10684,
  "parents": 10685,
  "astaxanth": 10686,
  "rolling": 10687,
  "excepted": 10688,
  "steps": 10689,
  "dwyane": 10690,
  "fift": 10691,
  "html": 10692,
  "##front": 10693,
  "astaxanthin": 10694,
  "5t": 10695,
  "7f": 10696,
  "cmb": 10697,
  "evoc": 10698,
  "gco": 10699,
  "nint": 10700,
  "nans": 10701,
  "nap": 10702,
  "nine": 10703,
  "ur": 10704,
  "zhi": 10705,
  "##oor": 10706,
  "##gal": 10707,
  "##57": 10708,
  "##421": 10709,
  "##xington": 10710,
  "thre": 10711,
  "##elines": 10712,
  "##asons": 10713,
  "exported": 10714,
  "sung": 10715,
  "##the": 10716,
  "2042": 10717,
  "nogal": 10718,
  "bever": 10719,
  "manchester": 10720,
  "permits": 10721,
  "lexington": 10722,
  "reput": 10723,
  "indoor": 10724,
  "internap": 10725,
  "theref": 10726,
  "going": 10727,
  "upfront": 10728,
  "corte": 10729,
  "alaska": 10730,
  "saa": 10731,
  "deliverable": 10732,
  "##8057": 10733,
  "powder": 10734,
  "aviv": 10735,
  "acknowledgement": 10736,
  "02421": 10737,
  "forecasting": 10738,
  "34108": 10739,
  "518057": 10740,
  "specialties": 10741,
  "##bei": 10742,
  "career": 10743,
  "failures": 10744,
  "readable": 10745,
  "drugs": 10746,
  "practices": 10747,
  "centralized": 10748,
  "seeking": 10749,
  "92011": 10750,
  "chengbei": 10751,
  "outlines": 10752,
  "hartwell": 10753,
  "eftc": 10754,
  "innov": 10755,
  "ninth": 10756,
  "nanshan": 10757,
  "naples": 10758,
  "zhiyu": 10759,
  "threat": 10760,
  "sungang": 10761,
  "beverages": 10762,
  "725": 10763,
  "87": 10764,
  "dos": 10765,
  "dietary": 10766,
  "oem": 10767,
  "opp": 10768,
  "pizz": 10769,
  "rf": 10770,
  "##self": 10771,
  "##wa": 10772,
  "##365": 10773,
  "##anine": 10774,
  "agencies": 10775,
  "##aract": 10776,
  "##ilance": 10777,
  "confer": 10778,
  "##igilance": 10779,
  "##emp": 10780,
  "##actor": 10781,
  "##osk": 10782,
  "additions": 10783,
  "##vency": 10784,
  "leased": 10785,
  "setting": 10786,
  "##01101": 10787,
  "mezz": 10788,
  "respond": 10789,
  "buff": 10790,
  "containers": 10791,
  "furthe": 10792,
  "equival": 10793,
  "worth": 10794,
  "merged": 10795,
  "powered": 10796,
  "##ovigilance": 10797,
  "commitment": 10798,
  "03103": 10799,
  "glauc": 10800,
  "modifying": 10801,
  "azriel": 10802,
  "kiosk": 10803,
  "6701101": 10804,
  "cdv": 10805,
  "targets": 10806,
  "precedent": 10807,
  "refractive": 10808,
  "cataract": 10809,
  "substituted": 10810,
  "fifty": 10811,
  "announc": 10812,
  "external": 10813,
  "bundled": 10814,
  "prospectus": 10815,
  "pharmacovigilance": 10816,
  "pounds": 10817,
  "succeeding": 10818,
  "trained": 10819,
  "insolvency": 10820,
  "innovations": 10821,
  "7251": 10822,
  "dosage": 10823,
  "mezzanine": 10824,
  "glaucoma": 10825,
  "azrieli": 10826,
  "9gl": 10827,
  "aids": 10828,
  "bars": 10829,
  "ever": 10830,
  "lot": 10831,
  "maw": 10832,
  "nations": 10833,
  "sl": 10834,
  "sow": 10835,
  "upper": 10836,
  "##bz": 10837,
  "##vance": 10838,
  "##在设": 10839,
  "##iplin": 10840,
  "acad": 10841,
  "trim": 10842,
  "##00365": 10843,
  "neomed": 10844,
  "sea": 10845,
  "se1": 10846,
  "seating": 10847,
  "assess": 10848,
  "bryn": 10849,
  "banan": 10850,
  "drink": 10851,
  "##ersions": 10852,
  "0100365": 10853,
  "signator": 10854,
  "##ievance": 10855,
  "doors": 10856,
  "##rication": 10857,
  "grievance": 10858,
  "##azing": 10859,
  "auditing": 10860,
  "api": 10861,
  "qualifications": 10862,
  "offere": 10863,
  "arrange": 10864,
  "glazing": 10865,
  "disciplin": 10866,
  "60631": 10867,
  "ways": 10868,
  "dispersions": 10869,
  "monies": 10870,
  "500n": 10871,
  "emv在设": 10872,
  "efficiently": 10873,
  "nomination": 10874,
  "formulated": 10875,
  "bodywork": 10876,
  "violin": 10877,
  "focused": 10878,
  "proposals": 10879,
  "molec": 10880,
  "bundle": 10881,
  "nanoparticle": 10882,
  "nanoparticles": 10883,
  "400054": 10884,
  "fabrication": 10885,
  "expended": 10886,
  "panels": 10887,
  "injuries": 10888,
  "declarations": 10889,
  "powdered": 10890,
  "8700": 10891,
  "mawr": 10892,
  "neomedia": 10893,
  "01003653": 10894,
  "signatories": 10895,
  "disciplinary": 10896,
  "emv在设计": 10897,
  "685": 10898,
  "8t": 10899,
  "cly": 10900,
  "ded": 10901,
  "dating": 10902,
  "kash": 10903,
  "ol": 10904,
  "olu": 10905,
  "png": 10906,
  "qiao": 10907,
  "rivers": 10908,
  "zeal": 10909,
  "##obas": 10910,
  "##rance": 10911,
  "##iwa": 10912,
  "##cence": 10913,
  "##mak": 10914,
  "##ntactor": 10915,
  "##oras": 10916,
  "##anjo": 10917,
  "##arcourt": 10918,
  "##ibr": 10919,
  "##tharcourt": 10920,
  "oral": 10921,
  "lieu": 10922,
  "serious": 10923,
  "shp": 10924,
  "commod": 10925,
  "certai": 10926,
  "defects": 10927,
  "send": 10928,
  "recently": 10929,
  "##odu": 10930,
  "invited": 10931,
  "##ived": 10932,
  "portharcourt": 10933,
  "3132": 10934,
  "cents": 10935,
  "##505": 10936,
  "3500": 10937,
  "liscence": 10938,
  "subcontactor": 10939,
  "vikt": 10940,
  "torrance": 10941,
  "05377": 10942,
  "90505": 10943,
  "othe": 10944,
  "##versa": 10945,
  "02139": 10946,
  "billerica": 10947,
  "utilizing": 10948,
  "sekmak": 10949,
  "notifies": 10950,
  "balversa": 10951,
  "2201": 10952,
  "01821": 10953,
  "surrendered": 10954,
  "estimated": 10955,
  "evidenced": 10956,
  "dividend": 10957,
  "pizza": 10958,
  "announcement": 10959,
  "clyde": 10960,
  "kashiwa": 10961,
  "olodu": 10962,
  "oluobas": 10963,
  "zealand": 10964,
  "viktoras": 10965,
  "0537762": 10966,
  "sekmakas": 10967,
  "oluobasanjo": 10968,
  "350": 10969,
  "485": 10970,
  "590": 10971,
  "9p": 10972,
  "bus": 10973,
  "binary": 10974,
  "mmt": 10975,
  "ni": 10976,
  "vr": 10977,
  "##trose": 10978,
  "##eat": 10979,
  "##eet": 10980,
  "##rm": 10981,
  "##rast": 10982,
  "##iable": 10983,
  "##gories": 10984,
  "##pene": 10985,
  "##tie": 10986,
  "##ester": 10987,
  "##anish": 10988,
  "##istin": 10989,
  "reuse": 10990,
  "compet": 10991,
  "sugar": 10992,
  "intrast": 10993,
  "terpene": 10994,
  "##opics": 10995,
  "disord": 10996,
  "##berd": 10997,
  "arm": 10998,
  "camin": 10999,
  "spanish": 11000,
  "chris": 11001,
  "##geons": 11002,
  "reci": 11003,
  "1195": 11004,
  "##ctly": 11005,
  "strain": 11006,
  "indistin": 11007,
  "##ifiable": 11008,
  "mutu": 11009,
  "attemp": 11010,
  "corne": 11011,
  "connau": 11012,
  "reduc": 11013,
  "harmless": 11014,
  "cooper": 11015,
  "westminster": 11016,
  "gu24": 11017,
  "maintained": 11018,
  "experimental": 11019,
  "apis": 11020,
  "92703": 11021,
  "surgeons": 11022,
  "##scopics": 11023,
  "massachusettschar": 11024,
  "4002": 11025,
  "lasers": 11026,
  "##paign": 11027,
  "monitor": 11028,
  "virtualscopics": 11029,
  "magaz": 11030,
  "dextrose": 11031,
  "instruments": 11032,
  "believes": 11033,
  "negative": 11034,
  "implemented": 11035,
  "sdks": 11036,
  "felder": 11037,
  "speaking": 11038,
  "halb": 11039,
  "halberd": 11040,
  "categories": 11041,
  "becoming": 11042,
  "generically": 11043,
  "fermenting": 11044,
  "cheese": 11045,
  "yeast": 11046,
  "33021": 11047,
  "pharmacies": 11048,
  "surrey": 11049,
  "campaign": 11050,
  "android": 11051,
  "jardine": 11052,
  "whitesmoke": 11053,
  "guildford": 11054,
  "sentence": 11055,
  "rfi": 11056,
  "equivalent": 11057,
  "slate": 11058,
  "5905": 11059,
  "9pw": 11060,
  "vrrm": 11061,
  "intrastate": 11062,
  "disorders": 11063,
  "camino": 11064,
  "christie": 11065,
  "indistinctly": 11066,
  "cornea": 11067,
  "connaught": 11068,
  "massachusettschartered": 11069,
  "fit": 11070,
  "hom": 11071,
  "ped": 11072,
  "##lan": 11073,
  "##aire": 11074,
  "##625": 11075,
  "##ona": 11076,
  "toll": 11077,
  "##ilit": 11078,
  "##chair": 11079,
  "##itheat": 11080,
  "1000": 11081,
  "##abilit": 11082,
  "live": 11083,
  "linden": 11084,
  "cheet": 11085,
  "14625": 11086,
  "customized": 11087,
  "##anger": 11088,
  "28401": 11089,
  "##ather": 11090,
  "929": 11091,
  "convert": 11092,
  "availabilit": 11093,
  "585": 11094,
  "wayne": 11095,
  "demonstr": 11096,
  "##celona": 11097,
  "silvers": 11098,
  "diagonal": 11099,
  "barcelona": 11100,
  "translate": 11101,
  "debts": 11102,
  "proces": 11103,
  "feed": 11104,
  "19087": 11105,
  "78216": 11106,
  "enforced": 11107,
  "grilled": 11108,
  "renown": 11109,
  "549": 11110,
  "millionaire": 11111,
  "skills": 11112,
  "sensitive": 11113,
  "08029": 11114,
  "amphitheat": 11115,
  "consummation": 11116,
  "19809": 11117,
  "parentsplace": 11118,
  "armchair": 11119,
  "pedro": 11120,
  "cheetah": 11121,
  "silverside": 11122,
  "amphitheatre": 11123,
  "522": 11124,
  "56101": 11125,
  "ach": 11126,
  "gil": 11127,
  "lms": 11128,
  "libr": 11129,
  "nbz": 11130,
  "rig": 11131,
  "vog": 11132,
  "##lated": 11133,
  "##bel": 11134,
  "##823": 11135,
  "##iled": 11136,
  "##letic": 11137,
  "onward": 11138,
  "dischar": 11139,
  "disburs": 11140,
  "hereinbel": 11141,
  "underlying": 11142,
  "12t": 11143,
  "accr": 11144,
  "strasse": 11145,
  "thereby": 11146,
  "160": 11147,
  "heir": 11148,
  "endorsing": 11149,
  "regulators": 11150,
  "237": 11151,
  "228": 11152,
[...]
